node {
  name: "mul_13/y"
  op: "Const"
  attr {
    key: "dtype"
    value {
      type: DT_FLOAT
    }
  }
  attr {
    key: "value"
    value {
      tensor {
        dtype: DT_FLOAT
        tensor_shape {
        }
        float_val: 0.5
      }
    }
  }
}
node {
  name: "alpha7"
  op: "Const"
  attr {
    key: "dtype"
    value {
      type: DT_FLOAT
    }
  }
  attr {
    key: "value"
    value {
      tensor {
        dtype: DT_FLOAT
        tensor_shape {
          dim {
            size: 56
          }
        }
        tensor_content: "\343\357\206>6\324%={/\344\273\313\377\235=\212\211\001\274\256\022\212=\245\006\325=Y\344\353<(=\344\273\203\023b\273\315v~\274\215\221\232=\267\362\342\274\276\022J=\'\003?\274\243\276\241\274\354\206\032\277?\360\324\274,\216V>\341\364\'<JC\031;G\035\026\274\013\357\250\274\322\346(={N\254\274\2277\374\273\345\243\023\275HK =\020A\261\274<\321\302;\310\347\335\2744\345\364;G\030k\274\023S\005\274\342c\303<\316\335\313=q\217\205:\330\317\273\274\361\264\333<);\274=\t\t\326=\223\365>>\004\004\204;Zz)\274\334\311\006\274`\265%>\006,Q=\315\301\254=\03466<X\327\327<\374k\200>.P\004\275\377\333&\275\t[\017<\\\376\016;!\260\211;"
      }
    }
  }
}
node {
  name: "mul_11/y"
  op: "Const"
  attr {
    key: "dtype"
    value {
      type: DT_FLOAT
    }
  }
  attr {
    key: "value"
    value {
      tensor {
        dtype: DT_FLOAT
        tensor_shape {
        }
        float_val: 0.5
      }
    }
  }
}
node {
  name: "alpha6"
  op: "Const"
  attr {
    key: "dtype"
    value {
      type: DT_FLOAT
    }
  }
  attr {
    key: "value"
    value {
      tensor {
        dtype: DT_FLOAT
        tensor_shape {
          dim {
            size: 12
          }
        }
        tensor_content: "\226Z\237=k\267\202\275\n\230\251=\033\201J>\231\271,;\303\317\023>\257/K=\264S\212=b\000\003?\237\324\205=F\341\205\274g<C>"
      }
    }
  }
}
node {
  name: "mul_9/y"
  op: "Const"
  attr {
    key: "dtype"
    value {
      type: DT_FLOAT
    }
  }
  attr {
    key: "value"
    value {
      tensor {
        dtype: DT_FLOAT
        tensor_shape {
        }
        float_val: 0.5
      }
    }
  }
}
node {
  name: "alpha5"
  op: "Const"
  attr {
    key: "dtype"
    value {
      type: DT_FLOAT
    }
  }
  attr {
    key: "value"
    value {
      tensor {
        dtype: DT_FLOAT
        tensor_shape {
          dim {
            size: 12
          }
        }
        tensor_content: "\202;U>I\314)>\201\320\251>:Fq\276\342\323\325=\241Z\013?\324\246\201>\'~\345=[\344\035=\201\267\232={\256\237<\010\311\232="
      }
    }
  }
}
node {
  name: "mul_7/y"
  op: "Const"
  attr {
    key: "dtype"
    value {
      type: DT_FLOAT
    }
  }
  attr {
    key: "value"
    value {
      tensor {
        dtype: DT_FLOAT
        tensor_shape {
        }
        float_val: 0.5
      }
    }
  }
}
node {
  name: "alpha4"
  op: "Const"
  attr {
    key: "dtype"
    value {
      type: DT_FLOAT
    }
  }
  attr {
    key: "value"
    value {
      tensor {
        dtype: DT_FLOAT
        tensor_shape {
          dim {
            size: 12
          }
        }
        tensor_content: "\223\371\t?\245\226\257\274`\324G=\302\003\r>\000$\363\274o\237\363>\217\t\345\273\037\256b<\312\223\26199/\236\274\010\357\016?\277eH\274"
      }
    }
  }
}
node {
  name: "mul_5/y"
  op: "Const"
  attr {
    key: "dtype"
    value {
      type: DT_FLOAT
    }
  }
  attr {
    key: "value"
    value {
      tensor {
        dtype: DT_FLOAT
        tensor_shape {
        }
        float_val: 0.5
      }
    }
  }
}
node {
  name: "alpha3"
  op: "Const"
  attr {
    key: "dtype"
    value {
      type: DT_FLOAT
    }
  }
  attr {
    key: "value"
    value {
      tensor {
        dtype: DT_FLOAT
        tensor_shape {
          dim {
            size: 12
          }
        }
        tensor_content: "\316;@=\230~\336>\234\202\201=\245\034\n?\270n\306=#\302\000<\333K\276>\313e\346:\315\000V<\"</>N\300\232=\364\337M<"
      }
    }
  }
}
node {
  name: "mul_3/y"
  op: "Const"
  attr {
    key: "dtype"
    value {
      type: DT_FLOAT
    }
  }
  attr {
    key: "value"
    value {
      tensor {
        dtype: DT_FLOAT
        tensor_shape {
        }
        float_val: 0.5
      }
    }
  }
}
node {
  name: "alpha2"
  op: "Const"
  attr {
    key: "dtype"
    value {
      type: DT_FLOAT
    }
  }
  attr {
    key: "value"
    value {
      tensor {
        dtype: DT_FLOAT
        tensor_shape {
          dim {
            size: 12
          }
        }
        tensor_content: "j\001\313>\340y\365>\026\252B?\255\345\214?\341H\347>\017\030\031>\222l\0069\307\274\r<\\{N>#\353[:h\203R\275\276>;>"
      }
    }
  }
}
node {
  name: "mul_1/y"
  op: "Const"
  attr {
    key: "dtype"
    value {
      type: DT_FLOAT
    }
  }
  attr {
    key: "value"
    value {
      tensor {
        dtype: DT_FLOAT
        tensor_shape {
        }
        float_val: 0.5
      }
    }
  }
}
node {
  name: "alpha1"
  op: "Const"
  attr {
    key: "dtype"
    value {
      type: DT_FLOAT
    }
  }
  attr {
    key: "value"
    value {
      tensor {
        dtype: DT_FLOAT
        tensor_shape {
          dim {
            size: 56
          }
        }
        tensor_content: "\225!l=\200\2504\272\257hG\272\343T\207\273\367\213\n>\317\244]\273O\035\336<\252}D?\000\272K=u\031n9\215b\232=!\023\n;\301\261\337\271\244\357\364<7\237\210;q\224\366=s\203[9\024\\\'>O\250F;\250t\251\271\034[\321;\213RD\2734Y{\2737\267P;\226\216f\2732\235$=\000\256\312;k2\273:\311\207\217>\355\340\202?\316\226\260=G\233\001<\242\220\267;d\263\223\273\373\243I:FQ\226;?\257\311\272J\351\305=Q]\336<.\230\370;$\037s=qW\0319\332~}?\230S\3079\364l\250\273\275\216\256=,\324\020\273\214\275\200;\203w\357>\036f&>o\214\360;\nL\014\273^\346\352?0\327\020;\010\230\000<y\002\201>"
      }
    }
  }
}
node {
  name: "b6"
  op: "Const"
  attr {
    key: "dtype"
    value {
      type: DT_FLOAT
    }
  }
  attr {
    key: "value"
    value {
      tensor {
        dtype: DT_FLOAT
        tensor_shape {
          dim {
            size: 12
          }
        }
        tensor_content: "9\303\366\275\220%\275=\345G\306=\351N\205>r\261\333;3H\373\2731\326%\275<\207U>\367\202o>\377\220\027\275\330H\375=\037\320\"\275"
      }
    }
  }
}
node {
  name: "f6"
  op: "Const"
  attr {
    key: "dtype"
    value {
      type: DT_FLOAT
    }
  }
  attr {
    key: "value"
    value {
      tensor {
        dtype: DT_FLOAT
        tensor_shape {
          dim {
            size: 3
          }
          dim {
            size: 3
          }
          dim {
            size: 12
          }
          dim {
            size: 12
          }
        }
        tensor_content: "O_T=\271S\337<Q\352\363;r\333%;\333\327,\276\363a<\274-\r\251\275\270\232\306\275\306\366\223;\274\302\332;\311\234y<\2423\250\274\356\201(>Y\245\222\276d\317\205>\246\3156>\273\003\213\275\370Z\313=68M>5R\370\275<\007v\276\373\037\222=&\224\214\276J}\005\276\222@\211=!\315q\276\177\023\302\275\227\254Y=v1\234>\032\262D=\331\304A\274qwK\276\036\017\024\274\306\376\355\274\273?u>\027\014B9a\360\204;6\270\316\275\300xe\276\232\030\212\275+\220\331\275@H\002\275eB\251\275&\273\030\276\n\243\356\275@G\231\274|T\253=\016\373J>\376\260Z>L\032\n=\266\014\007\275\375L\354>\365\344D>\231\240O\275\361rh=\247\004\333=\374\272\010\276\277\251*\276\370C\346\275\016 \004\277\217{q=\276\370P\276,\230\250=s\340r<\316\351%>\247R\313\275\0130\264\275\242\304\365\275\250(\360<+I)\276C\201\231=>\233\024\276z8r=w\007\022\276\252\r\"\275F\277P=\264\246:\276\355\010x\276\313\271l>n\260\225\276\313\360\255\274\213\220N\275\370\354\220:}\354\353\274\336\201m>\017r\202\276\322\257D>\026\237h>p\325->\253\233h\276\266#h>\214X\"\276\016/Q=\363\025\347\274> \">\030\353\271\276\341I\025\276\357\352S>\207cE\275j\310\226<a*\312\275w\342\r>\324\225\350=\210\3614\276>CO\275\244\310\000\276v\321\216\276\314S\255\276\270A\252\276\033\332\305\275\177\037\177\274\300\272m=\326\010\005>[.E>\"\216T>\001?\306\275\014\252\202\274a\343X=\316\316L\276;r\223>J#\347\275o\263\363<\220\037\367\276\310D=>\325/\377\274{\243\262\274\035vG>O$\005\275\274,\237\275\250\0348\275\030\376\263=N\340_\276\312\277\002\276wf\235\273\0368u\274\206\201\264\2741\360\027\275^\322\361<=aB=r\331n=d\211\306=2\326u=d\036\333<n\237\301\275\256\276\231\276\366\221\033\277\266\021\025\276\331Y\276\275\215a\000=\371I\332>\227FL\276d\\\267>E\370\014>\263r\025\275\360j\377=\235|\204>\325\036\205>\333\n\203>\027\267\234<\n\336>>\361\243\001\276\030\223\026\276\305\356:>\222\010\212>\255Y\363\276\354\372~=(\034h\276\307\353h\277\223\250C>\2047\236\275\0309\247\275,\r\026\272y\2634=\005\374\240\275\271\272\356<f\206\333=&\214]=\356)=\275T\241\325=\323\343\016\276\277\334\330=\374u\027\277\211V\216\275\376\345\217\276\251^\207\276\341F \276u\257\\\275`\374w\276o\n\335\275x,\">`\360(\273^\320\037>@Tv>\374\030\025?\344\235\245>\017\232\337>\215\t\217\275\332\315\246>\211\210\333=\220\277\226\276\255\372\343\276p\343q\275\240]\222=\232+\237\276\245\334(<+\243b\275\353\323\270\276\373\301U<o\254\237\276\324\243^=\016<><wVu\276R.P>\250C+\276Ls\213\275G\343\275\275Q\356\222>\361\001N\275\316\031\031\276L$3\274C\232\034\276 \306\354\275( 4=.\327\036>\377\272\211=Y\0366\276d\355H\275\344\0343\276&\2613>l}\221\275o2\327=\006\324\361\273\337i\032>\214>\371\275\334\372\375\275Z\326\326=\265\341U\274\347\363t\274\334\001\271=\274(\234\276\210UR>\275\027\225=\373\374\350\275\202\033\334=\323\211\357\274\243\351\264\276\"\274|=\2136M\276\3122\334\274<\335z\276t\240\364=2\221\226\276\324)\016\276\003\362\267\276\342\253t>iZ\253=.\327\363<\217}\341>n\304\224=\317\215C\276\023q\271=\027c\237\276>\3116\276\200\260\202>=\016?>\351\253\245\275\275\305\001\276\316\002\244\275!\336\n\276\026\232\201>\355\377\213\275\271\022\313>Q\334!=~\251}<9\2722\276\243?\270\276l\301\300\275qY\273\276\247\364K\2759Q\033\276\034\206\316\275\344\327\n\276\327,<\276\010\021\375=\024\343\037\275|\375\303=\000\177<>\342\227\217>\337\350\323\276\357\364\260<\355\343\312>\362I\251\275\n\001\360\276\207\314\266=\322\252\t\274\nO\372\275l\340\225=\220\314\351\274\027\013\233=\337\371\177<\370!\311=\212\335R>C\275\263\275G\017\030>\"\346\242\275\344\037u=#7\260\271~]\321=\342\246\310\275\267\031]<d\274\311\275{8\266\276\324\362\017<\234D\212\275i\t\343=\211\217\023=\215\030+<\t\274k=>A\236\275\344P\205> \320\251\272\306-\332<\321\032\265=\302\017?\274\245*\034\275\252\331}<\2776k\275\337\335U\2750\216w\276e\302\262=\202\244J=jz\263\276\3037\334\275\r\371\226\275\034\226\314\275}!e<\2054\323=f\352o>^\256\021;N\t\305>\376\212\220>)\021\231=\365\327\013>\236=B\276e3\004\276B\245\242=\023K\266\273\254(\374\275\013\240\024\275\343\337-\274\032:\036\276\014\\\313=\177f\245\276h\256t\275\346\023\"=\341\260\227\274\332\036\217\275\312i\223\276\304\212\276\274K\'x=\254V\373=\311\035\352\275\277\035\t<\260e\267<ru#\276N\274u=c\213O\275\\\243x>\262j4<\235\001%=\314\307\347=\030P1\275\330\370\371\274\270\212A>Nl\274\276>\364\326<\247\030\217\27519O=(\341\307=\353\270\370\275\215\004\314\274\232\013$\275(t\361=\337~\235\274\341\372\025>q\351I\275*\007\260\276\342\321\344=3W\271\276\372\363%= ^\236\275Fm\022?\221\217\244\274\366\273\323\276A\004\250=\272P\261<\304)\376<y\002\216=4\350U\276\2718\272=\220\027\235\276\026\347\234\275\364N\031>\242JQ\276\357=&=\266\020\250\275N\002\206\275\005\034F>G\271p\276\335\271\013>\025W\007>\226j\242\275>\222\000>\023\335\350=\222\241\211=Sb\013\277;Q\032=\357\254&>dG\302=\305\222`\275V\273\020\275\3620\212=\014\260#<\016\003\306\274l\347I=\332k\200\275\223\237z\276\t}\246\276\304\323d>z_\232\275 [\005=\243?\322\275:W\263;W\225\016>{\257\244\276\310E\241=\200\215\033\276\361\226)\276\"e\240=\326\323\334<@\003\371<\277I\302=\303\255\004>|\314\215=R*\207>\032l\335\276\275\034\231>\216|\246\275\'\024\370\275\354c\275\276\335W\342\276rQ\347\276\332\323z>t\267\017>\236\300;>r3\321=b\2222>\243&\373\275#k\207>\002D\277\275<\246\027\276\212\365\224\276\330<\016<\217\245\204\276\204\3379\276p)<>\267\261\031\276UGP>\264u=\275\364F\361=\014\267\333\276P\244\342\275v\004C\276\345\210a=\224\316q\275\021\374\025=\337\245\313\275\257\301\377=i(\214\276\221\035\336\274\033o\311\276;]\034\276y!j\275\310l<<\337v\246\275t\022\252\276\357\203\000>\214X\311=w[\001=W\315\251\276\030\032\321=\214]6;E\241J=G^$\276\366;\234>\022 \016>\022H\000\276\243v\224\276\362\221!\276\305#\341\275A\205/\274\250\252\246\275\205\250\335\275\001\346\330\275\237H\206\275\002\302\026=\220\035%\276\224\316\023<9rd\275\002\3302\276\013\265\374\275\331\271\252\276\255\227\265\274t\340\226\275\262\337\201>\r\\\306=l\250\306>\\u\030\275\375\260\345>K5\312\275\242\277d\275\367\017\010\277\333\372~>\267\335^\276\337^\341=\261\361c\275r\372l\275\244\350\326>S\234\333\275O\272\203=\342k\205\276\312bV\276F\326\320=\253\250\231>).\232>\332\322\026\277\333r\005\275\321L\032\274\207\316m>~^c\2766\177\324\276\233\"\332\275F\276\352\275`\306\232;\345\243\344>4\206\177>*\307\354<\362~\207>\254\t\020\276a\203\222=\374\tI\274\024\224n\276\001@\267\275X\027\322=V}\006\277UEC=\n8.<\260u\364\2733\203?>\330$7>f`\237=\255\367\311\274.\326\307\275\"x;=@6\221\2753_->\362M\372\276\230\326T=\342K\247\275\370R{>6=:>\377w\211=U2\221\276\203\327\003>\3159\355\274\271Tx\275\243b\330=\001\276\366=\212\361\254\276u\032\261\276\330? \276\034?\200<\361\215b>t\035\345>\345\313\314\276\202\343\357>\000b\n\276\312^\343\272\302\026\001\2772\327\022<x\2771\275\225C\214\275)/\223\275>\032\321> {\375\276\333\005\232>\364\315\234> \205c\276\005\375\337>L\242F=\252\223\214=\325\252W>w\252\231\276\341\013\n\275WEr\276s\3040\275\315c\223>\014WU\276\356e\332\275.a=>\200\034E>!h\343<\201\372\227>\315\275c\277\324\323\324\274\204\273`\276^\030(\276p\005\014\276M\031\033\276Mk\014\276\314\361\301\276\265\010\\>B\220F\277q\003\022\275\333y\033\276\343\017\334=@ P>\231\017\264=\225\317\017;\001t\246\275\225K]\276>\247O=\373|\010\2760W\236>|\016\221>Tb\353\275\214\312Q\276\342l\223=X\354\321\276\023\233\211>\271;T>\315*\257>a\210\002\276E\356\253\276\320\013\004=\370X4\276n\004\355=`\222\273<\332c\032\277F\304\222<\013\352\013\276\002^\027>\252\035[=\232= >\326P\275=\373\215w\275\014]\226>\256\017\374\276y\316\'>%\303\277=\257\350\007>\304q\315=\242[\225>\177\305B\275\211\320\271\275\300\372t\276\305h\027=O\365\264>a\362\240\272\014PQ\276\224\244\324=\234\001r>5uI\276N\326\315\275\243\205\022\276\305:\370\275d+\333\276G\316\'\276\202\245\355=\267|\267\275\256\\\333\275\256pc\275\233\001\002\275B\331?\276j\343P\275\005\201\032\275\333\000\022?v\206\021>4\267\330>(\246\003\275S\344\201\276\341p\t\276\36414\276\227\254\276>v9\276\275\206\334\215\276Km\026=\326]^\275\373\225\363<\216I\203\276E,\343<\215\253\301>\0017\021\276\330\256\007?\340\233\317=\274\211\000\275P\370\331\275\000\274Y>\215\004\\>\326\350\005\277\001\343<\276\243#S\276$\224\315\276\n\341$\276\310\374\312=\234\201\261<\031\273&\277\215\254\254>\023+\324\276\232~\334\276a\201\231\276N\244g=\006\200\300>\253\242\362\275*\255m<\352\014\361>I,F>)\3267\276\367R\235\275\n\306\213\276\020g1<m\346<\275\265\034\315\275\222\237.=\300Eb<u\252$\276\2476\003\276\363A5\275\300M\r\276\251\246\345\275\207]\326=B$\225=\346\017\343=\\\271\372=N\373\031>,\306\215\274\305a\221\2758\214w\276U}k\275*;,>\225\367\353\2753\340\311=\261\372\303=\t\314\251>M\351!\276;\363\251>\264Y\222\276\251+[=\267+\013=\3721\002\274\244\244E\276F\324[=\374\236\214=@j\224\276\022\255;\276$\312\\>W\333\230\274\302\3743>\227\255>>\020\267 >\2535\232=\314\266\356\275Y\017\007\276\247%\253\275nq\351\274\020\'\205>wzH=<\010u<}\3024>\221\264C>7U\326\2757F\020\275P\241\006\276\"!\233\275\323~\200\276\361\356\002\276%\317 \276\312\307\031\276\343\025\215=A\242_\276\020\337\301\274\335/\026\276\005\316\255>\305\323\332\273\216\013x\276S:\315\275\307\035\254=\r/\241\276\207/\r\277P\353\267>\370\211t\275\331\216\020>\234y\310\274\031p\275\275\366@r>u\234\246>Qw)\275\260q\\\276AD\201\275\177\333{>B\206\001?\020g\001\277x\025\312\275\321>\247\275\205\357\317<\206\356\237>\363\325v=I\0320\277\351\230h\276\220~\240=@\217\214\276k\317_\276%V0\276O\253\323>\377\347\232=f\270-\276\227\031\343=\037\3675\276\24441\276|X\256>Y&\004\276\276&\023>\024\210\225>qm\013\276\231\307\346\276\355\3553\273\030*;\275Cq\306\274\332\337\337=S\335)\276\335u+\276\216\003\234>\263G\221>\243\332\033\276S\302\r>q\206\215=:\344\035<\264\334/\277\250`\363\275\360\335\277>\016pL=s\236$>\034\262\"\273\215\262\022>\361<\">ST(\274\27714<\n\331\267\275\272\364\370\273\207h\025\277\274\350|=\226[\377<\223\352)>\316\"@\276\200>\326=\'\226\t=}\037R\2762a\006\274\337\363\202=,\377\362\275d\200\353\274\314\017!\276\336i\366\273\261\216i=$\256(>O\252A<\245Q\232;\026\354\334\275\2741\273=\370\261\324=\207\277\332=\251\334\257\274\303F\335=\025\177\237\275~\226\340=\243\323\201<\270\371J=\246\220\007=\031#\202\276\254K\323\276U\022\240>\217\306->Z|C>c\202|\275@\260\027\277\022\340\006\276\206\010\222<:(\212\2716P\010=?\007\224>;\246c\276s\222\322=\275\263\224\276\025\277F=\214\026\027<\3648\305=\366C\244\275\013\225C=\017-\014\275\212\345\000=\014\201\362\272\327\005\335\275\351QO\276\254\026\213\276\031+\306\276%\027\000=NjN>\235oJ\275\242\270\334=\347\343\241<\255Q\233\274\3528w\276Qv\375\276\250-*>\276[\336= Ze=(\230\213>\306\3259\276\352Q\207<\251\204\204\276|~C\275\\]4\276\274{\370=\272\361\210\275nG\214\275VV\375=\333\027\264;\\-\347=\036(\033\276#O\263<:\312\212:\001\240\355\275<\206\007>\023\331\245\276\237\213\326\275\255\367\235=\363RB\276\357\200\314\273M\213=\275\366\201\001\276V\017\034>q\327\372\274E\357\365=\222\000\302\275\021b\'>\367\272\321\2755\365\344\273\375Z\010\2756&\274=\205:\301:\313!\323\275\010\322\223;!\330\005\276\274\022\014\276u\333\003>\027\372\307>r\032\207>\257A&\277a\030\006=`\020\021>)\036o>W\266\020\276\313\233j\276 \352\027\276r\252\246\274\236\305\033=E\305<>\371\037\304=\270\300y=\350\010f>\340\351\'\275VON=\352>Z\275\353\037\351\275\317\374t\276\221\341\207\276\344\216\251\2769\034-\275v\014z\275y!\267\273L\373\200={\322\316\275\354r\247\275\377\233.\276aX\214\276\207h+>\027f]\276\355\273.\275M\301\313\274(Y\361<\216\263\316\275\232\233\370=\360\001\224<(\323F\275\026\243\364<\336\362~\276\300\014\202\274\375_D\272o\223\303\274\225\277\t\276EJ\226\276\2034@>\350o\006=g\304\t\274v\244\005\276}{z>W\264U=G\236\257=j\313\234>\260c\220\276\260\313\255=\025*i=gg&\276\265\302\376<9\311C\276\252\211\313\274\261\032\233<\370\214\003\275ka\233=N\020Q\275+p{\275\304[\252\274\245<D\277\311\262S=\034\234\343\275\301\357y>>C\037==\264\024>\003\371\320\276\001~X>f\031\267\275\034d\240\276\204\374\211\275k\254H>n\354*<\r|\032\277lV\357\275\017\371\"<\354\251:>\310\244F\276v\363\227<`[\337\275\260k\231\276RgU>\361\262\216\276\275/7\276\212\310\237\276\247\013\263\276\000\217\314>\241\217\021\275\325\322\025\275}-R>\317\361E\276\206#\356\274&\022\301\274~\365}>\244S\223;\341T\227;Y\251v\274\330\261\264;\307I\211\276nL\014\274?^\272<X\343O=\216\344\207=\336\211#\276Gt\202>=J9\276\025\202\225\275\004\305u=\341\376s>\227\332\225>!\232\212\274\263\356\222\275[nr\276\203\226_\276\022\030\215>pZ\t\276I\322\214\2749\3429>\3162&\277p\t\004>v\234\014;\013\315}<H8\021>\334\233\002>\227\264\003>5P\207=\370\204\203\276\253\251\335=\246\207L\276\326\362X\275,\3359\275<\2274=~Ah>\254]\036>\231B\216\276,\265.\2754T9\276rB\236\2720\376\246=m\330\311\276\347\300\206;\344W\r>\352\330\333\276\347i-=\235\005`>\230\213\325=z\005\257>b\016\347\274R[-=\243\2162\275\377\335_>R\364\211\276\360\026\210\275\365\004\315=\203\\\350;\314\366\275\2759\213\344\276O\333\260\274Ta\374\275\017\032\306=\222\227a>\372\332\247>\335\372\347<\362\252\254>4T=\275\17701\276,Q\t==\232\362=E\264\206\276G\300[\276Z\256\224\274\277U]>(\260\227\275\236\225\313\275\237\375\006\277\237\260\002>\033n=\275y>\225\274n\206\266=\013w\321=\235\010\017\276\310\350O=\310\263\237=\253\021P<\245\010t\275y\375\267=\033\020\343=\373#\217\275\202\270M=\250\320C\275\210\030\n\276\325\001\353\275\366\356M\276C\200\262\274\247i\234\275\225\311==\310\307\024>H\256\235<\t\215j\274\366O\375<\332v\030\275\333\t\324\275\241\253\230\276$\200\354\275\265\333\313\276l\255\234\276\025\301\301\274\361\370\006>\312\303\226\274\355\345\226\275\346\021\350\276g\204\263=3\344\310\274\351@\250\276k#+\275\006\377f<\300o\233\275=\302)=\374k\370=\306\031$\275g-\010=IP\247\274%\013-\276P\317\211\276z\005x\275\343Fv\275\375?\372\275\360~\036\276H\014\005\276$\260\270\276\3142(\274\220\301\223\275,z\245\276L\3500=\024\201\233\275!\240\247\276\271\001\363=bM\262=pP\206\276\305\306\026\274w2\036\276\302`\372=\021\2709\276\356U\251\273\347B\007<w\003h\275L|=\276\214\342\243\274{:W=\304\332Z\276\213]\371\276\303\243\301=\271_\363>\327n8\276\373W\236\275\256\365\014\276\370[\343\274\362\006\274\276\240\000\321=q\227\302>\366\356\372\275-N\006>\030\263\314=\2559\010>K\360\230>|\013W>\222\334\300\275q>\307=\010\252\261\275Xc\261\275\220\032\016\275e\340$\276\341\345\312<c+\257<\007\330\251>\224\247\234\276\004I\026>\237\250\305\275\ty9\276\352\"\327\275a \030\276\004\304\022\275\362\242\344\274\362\030\235>_I\261=&\024\205\276\202\222\211\276\'\223\201=s\316K>8E5>M\352\006\276\031\016\256\274l\373\310\275\rH\221\275Y\005a>\215k\300<L\232l\275\316\311d\274\210\271\n>\263S\021\275 \271\000\277g7N\274\366\251\305=\377\010\003=Vm\003\273\342\2408>\367I;\276>\333\242\276\000*\362\275\034\025,=\n]@\276\342\246\033>\225\345\256\275!#/\274\306\277\250\275&\375\235\275\237\334\000\274?\241\216\275Q\355g\276\245\'\n\276\212\210\245=g\212N\276)v\261=\233\3248="
      }
    }
  }
}
node {
  name: "b5"
  op: "Const"
  attr {
    key: "dtype"
    value {
      type: DT_FLOAT
    }
  }
  attr {
    key: "value"
    value {
      tensor {
        dtype: DT_FLOAT
        tensor_shape {
          dim {
            size: 12
          }
        }
        tensor_content: "5W\002\276 \n\331:Q\345v\274L#!>;\235\n;\217\341\337=\301w\021\2752\324d<\363B\006\274\264\023,\275n\254\227\276\0146\274\274"
      }
    }
  }
}
node {
  name: "f5"
  op: "Const"
  attr {
    key: "dtype"
    value {
      type: DT_FLOAT
    }
  }
  attr {
    key: "value"
    value {
      tensor {
        dtype: DT_FLOAT
        tensor_shape {
          dim {
            size: 3
          }
          dim {
            size: 3
          }
          dim {
            size: 12
          }
          dim {
            size: 12
          }
        }
        tensor_content: "\221\276\023\275\246s?=K\211\000\276\021,\202\275\3544s\275f\317}>wD\345\274\304\327\275\275\255\256\350=\306\352^\274\313H\235\275\217\345w\274\377.o=\372z\021\275J\205\257\275\237\351\007>N\244\025>|p\313;\347\202;\276\341\016\374\274p\202\215\274\341r\020>9@\226\273@8\004>Q\365\370\275\016\2727=O.\275=\250\213\006\276\326\342\246\274wL\210=\224\234l=\262\244.=\027v\330\275\312\3467=\372\300\240<\010I\204\273\t\375\005>\205os\275*\237\252=)~\222\276z\204\211\276\351\312A>\237\331\323\275\300\025\035>\'\303\207>\261\032$\276\261\232}>_\240\245\276\317\t{\276\215\316\246\275\024\3112>4\'^=.\027`\276\267\372\360\274\266m\375=y5\236\276\376\363|>\010\007\221= \306\202\275\223\017\035\276\367\241\030\276YF\364<\334\252\320=m\006\222\275\223t\372:\377\"\277=\361~\201=W\344#\275K\230\235\275U\321 <\244\353\231=\257}t\275Eb\013\274\001\300\354\274\331\033\233\276\252\234\220=\3712\261\275B\322:\275\177\255\300\271\2327\236\276l*\370\272\350&\210\276\300\342\242<f\244D=\376!\354\275\261%\251\274\t\376\262\275\342\322\'=\276T\220\275\2356c\275s\t\346=B\212{=\326V\265\276M\036\006>0\274:\276/=\264\275\304]\036>x\343\310<\362e\266\276\307SU\276\260\226\252\275\004q\033\276$9\034>\235G\307\276WC\023\276\221a\324\274nT\001\276\255\207\"=\r`\343>0\224E>\234oC>\205a\256\273\275\226!>\243\003\255\275\326}\217\275\345\377v<\326\350\322<\352<\302\276\000%\261>\212\364r=OO\024>\023\366S>\332\320.>\377\010\307\275\351\2753=<\303l>\332\225l\276\315\244$=&\356s=\245\207s\275Y\320\026>\373i:\274f\211\001\276\030\\\014=\177\365\001\276u9\233=lQd>/\263\267>\375\251o<\321\212\217;\307\267\337\275\374OE\275\274X\021\276\332\022\322\275\235\271\367=\371\030\033=\203\321\214\276\033\330?\276\332\n\021\276\245\017\200<\303\016\374\274\004e\250\276\'\342\273\276/\021\013>\344\355N\276\223;\240\273\267d\221\275\236\370\265=E\263|\276\334\245m\275\250\r2>|k\253<>\\W>\356\324\031\2755\3727>I/U\276\034\260@>\234\2604\276\t`\010>\005\272q\275F}e>\234\230Q>\020o\205\276L2?\275\316|\244=\242s\265\273\n\2249>\013\321\271=D\"\301:S\250\325;C\234x\275*\230=>*\352\215\276\251\307\277<T\373Z\276\362\252\245>\002p\255\274\002\tE\276P\343\027\276{W\214\275B\246\273\272\026\265b\276\365M@>\357\263\302\275\224\224]\275\321\001r=C\270\031>F\233\235=\'\247\033>\374\231\006\275,\257X>\261\364\273\275uN,\276\341\347o>\222U~=\355\017\360\275l\276\035\275\tfG>h\032\213\274\302 \356\2751$\221=\037\230\t>\374[X>r\315w=]\"D\273\265\236\000\275k\213\356\275q86=wO\023\276=A\324=4]y>\212\332$>\316\032v>\241\003\013\277\224\022\001>\366\345\027>O\210z\275j\256\266=\325?\313\276pD\277\275d9U\27564\261=Q\243\214\275\277;E\276\013\277a>|\351m>\362\031d\275\177\334K\275\007\326\214=\253\237\024\276\205\231d\276\260\305\217>l\241\003=\232MV\276J\220\367\273\373\023\201>\361\302\t\276\306\341D\276\336M\027\274\341^\323\275?\347\250\276_\370\002\276W\004r<\343\303\365\275\357\020L=\307\270\'>~\226\277\276\316\345\003\276\263_\314\275\007cN\276Z\033\204\276\023v\315<\207\221\320>\270\3563\276O\013\331\275\211\223p>\003k\022>>\264\217\276\265\027s=>7y>\n\272B\275\243N\244\275N\207\353<\3218\n\276\275l\235>\300\350G\275x\t\\\276\360\276\201=\230X\215\276\212\200\275\274\331\3551\274P\251\255=\256\332{=_\377F\275SV\006\272;\320C>\031^F>\272\"\300\274\370\340H\275O\351\364<\t\375\235\276 \330\315=\267rL=Pes=N\342\216\274d\262$>\204\330\243=\332\264v\276\367ve\275\030+\014=r\0176>7\236\017\274\312\315\233<,\204\207\275\366\324;>[\006W\275\364P:>YuX=_\227\227\275{r\240\275\003\222f\275$\237*>\376\210\230\275\214\347Y=\265>\036=b\271\302\274\2634L>\200,\302\275\225\365\354=\000X#\274W9\324=>\327\240=\252r_\276\276\247Q\275\000+\240\275.\\[\275\334jM\276\247-A9^\365l\276g\\\'>\033R\t=\031\354\314\276\213/\344\274\305\302\357\275W(\016\276\301.=\275s\363|=\024\204\364<\263\277R=l\266\373\275\362\\\203\276\0079\334\275\'\003P\276\017\212\211>!\232K\277\022\356\254\276\350Y\213\275FI\363=C\026\243=\340\206\365\274\277\006\033>\262\210\003=\243h\212=1\035\234\275S\206\310=\344-\261=\370z@\275X^\275\275\005\031^=H\347\365\2757\265\356\275\264SL\276\242\250\243=u\245\020\276\255\272\212\275\353|\030\276U\274\301<)_\031\276j\030\010>\345,\031<(\207\324\276\016\317\356=K,!\274s:\212\274\321X\257>\000\350\010<=\223\177\276\006\361(\276Lt\267<&\365\022\276pr\250\276\273Z(\276\327\t\356=\004\220\261\275I\261\364\275\247\215\321\275\355\246\302\275\014\356\365=\222\2736\276>\364\217\2743~\276=\374~\210\276\361\251\217>\245F)\275$Kv\276\357\332\322=K\210\274=\334\352\220>\010\210\366=v5u\275\232\263\323=\032!\310<:t\263=\306L\033>\236\342\204>\371\n^<\307\3263=\030\225\270\275\223\262\363<\t1\315\275\353\321\212=G\214\250=d_\204>\373\364\211\274\344#\036\276\237;\272\273[\344\350=\206n\023=o\212\257\274\302\350\241>\026\224\235\275\216\376U\276,\'\275\275\377\374\\\275\017 \351\275\263\314+=pUF=\340\321;\276&G\321>Og\203\276\023\225*\276+\374M\276\232g\330\274:Nn\272\255\330\372=C\357\374=\021\207\306=\030\261p=\002\275N=4\253X>\341Xs>\220\024\352=\"\330S\274\034W\217\275\365\364A\276(E\n\276\333\203 =_\020r\275\355\033\326=\361\374\251<\034\222S\275vvC\276(\224\315\274\311\344\247\276\355\0057\276\304,D\276\200N\222>0\005\373<-\304\246\275\210\227\216=N\326\374=\326-\013\275\264B\202\275\017jk\276G\325\311=\000l0\275U+\013=+\216\331=\273@\253\276\357~\n\274\375\332\020\275\r\353\336=]\330~>\317\324\227>\252\222/>\362\362\257\276[y\251\275\233\275[>zc\254\275\200q\243<\"\n\034\277\255\261\230\276?\264z\276\337\205\215\275\006\317\321\276\222\001n>\211r\210=\033\371b\276\010\374|\2752\306D;\257\327g\276\211\324\304\272uX\241\276\271\355\022\276\313\374\006>c\323\272\274\r#\037\2769\240\267=\261\314\304<\334\016\354\276\rE&\276\315\344\327\275\'\311\205=\325\032\331=\264\360\006=\2648y\275\255/\255\275\272\266\252\275\357A\270\275K\226\353\275\352\210\326\274\273\357\215>\372aJ\276\303\023\272\276\216\302\277=\366\"\202\275\302w\317\275\327\016r>t\352i\276kQ ><^\312=\364\312\366\274GP\013>YB6=\261[\221=\222\\\000\276\2719\320\275\372\377\313\2755\362\305\275^\332\001\276\211\250\262\276\243\005\267=c\200.>p<\271\276l\205h\276\330\'\234>yA\377\275\361\2662=\231\022~>\001(G\276\262\006\330>F\266\331\276\317\233\227>U\331\210=\242d\267\276\226M%\275\372h.\275/\305\263\275s\254K\275\230-\304\276\031\211R\276\254-\240\275z,\023>HQ\220>b6d<R\237\017\276\336\017\300\274\227k\220> 3\237\276\220\001\241>\020\326\306\275\022\355\225\276\311\200\232:\274Sk\274v\312\252>7%\252\2767\377\260\274\246\255\327=_\251\035\274.md\276\254\256\217=\202\256\212=\001\214\327<U\353\342\275hY\333\276y\272\346=\224*\234>\3109\255\276\376\232H>:w\313>z]f=\365\205e\276Yt\200\276\240\363Z<\032\305\226\276\355\356G>\333\327\232\276\362\323\211>`\023\374;\235\241L=H.\251>\376\306\322=y$j<\000QB<4\t\205\276\r\311\222>b\'\357=\371\006\001\273\203\033\016=\352\230\025=Zb\264\276\364V\331\275\030\034I\276\345;\354\276\313\275\233\276J\215\336\275\326\366\234=\303z\274\276\014\342\005\276\213z\027\276n\370\336>!I\317\276\334\344\226>+\253\036\277%\224\t>\373\263\243>\332\000\211>\234\364~<xJ\305\276$\251\177=)C\242\276\016o8>\n4u\276\310\331\227>\223\007\220\274\276\337\331\2756\334\240\276>\337\021\275\223\342\203\276\211\377\332=\272\225\217>\304\340M\2761T\322\275\"\363M\277&\243|>JX\227>;\242\202>\021P\252\276\010\260!>\210\343M>Fr\202\275m\333\013\276Vl\026\277\274\325\216=c}\024\276\246\206\227<\301\370\256>\241\312\347>\026\200c=\321\322\353\275\277\"<=\242S\007>;# ;&\217\357=\220q\204\276<\374\232\276y\017\235=F\005W\276\274/\200\275\334\211p>c\257)\276eM\n>1\252\231\276<\254C\276\325&P\275iS;>\304[Y\276_\372\351\275\323,\267\274\356\2139\276!\215\002>\373t:\276t\230\232\274\262\240 \276\302\022\013>\315!\304\2747u\232\276\335\212\347=H\356\314=\207B\342=\0208\343=\037\261\326=\322I8>@\206[\273j\023Q\276\260c\353\276\003z\365\275dT\253\276\354K\003\277]\024\270\275\203\373\275\276c\016G\277\360\275\017\277\251\303[>{l\265>\363\372\237\276\320\314\212\276K\200\234=\257\312u\275\312\240\253\2766\225+\276(D8>\014\266\241>\330\002\330=\351@\006>%\224\021\276\0232a>\325.\000\277\215\375\333\276\270.f=q\325\270\275\030\311\270\276\020\244\003>\247\031\367=\0217r<\357NY>\224\265-\275\366\335\003\275\2439\313>jn\016\274\277\211Z\276\030\227\222>?Z+>\331\200#\276\371z4>\3548X>\t\325Q=)\353]>\303\354e>\351\370\275\276\0067->\216\356\367\276D\001\246=\310>\315\274&\254\217=\312\363\373\275<\377\230\276i#\216\276\032.\276=$\003b=\371u\377\276@_O=\220S\272>\344\242\005\276^\367\270\275]\340\014\276\224\365\026\276:\216F\272\307\2654\276\206\225\036\2768\025!\274\267tx>nb\264=J\014\031>\302\241\n\276\224\005\014>|\222\025\276\301\212\316=\224\210\334<\330E\366=P\200\225\276\\\353\204<\353\007\235=\010\374\320\272(T\236\275\316\330c\275\343\024P\276\307l\257=\343\352g=\035;\307\276\362\273\254\276\007?\023\275\325s[>(\311\310\276\216\211\374\276\0027\266>(\314L\277NO\302\275\3031s>\3301S\274\337\214\t>\257\205C>1\256\205>E9x\274\313o\367\274\370f\262;7\374\317\274\017\322\247>\341\215M\276\213QT\274|L\033\276\323b\270=e;[\276L\341\021\276\260Q\371\275\002\361\035\275\217b\231\276\304\2346\275J\237l>\2709\236>=*\230>\343,\221>\347\201%\276\261g\316\274\335\002<>\324\312\372=\307\206\205\276\001\212\004;\027\222\001\276\212L\032\275\272F?\275<\023!\276\005\330k\275\3646\207>\034*_>M\032\206={\322k\275\360\211\244=w\247>>\316\355\344=a\377c\276\353\226\000\275\331Gd\276\270]\230>!\234\355=\033\355\206\275\365\327\253\275A9*\275\324\326v\276\002,o\276y\356@=\303\221\235=\357g\214\276\"?$=\345\343\264\273\005p\243\275\026\'\250\275;k\236>g\032\337\276\337\005\347;\320\306v\276\342\212\206=\341\371\016\2765\301\324\275ec\207>\244\n\026\275w\370:>\020\202\266\275\311\266u>\000\256\347=\034\230\370\275$\025\205\276\357M8\2757\030\263\274\223\027\247=\322\362\354\275\t\354F\275{-\204>\336\365\203>RY\250\276\232\304>\276\221;\004\277\0047\232<Y\266\231>\261SB>/@\032>\213iD\275;\237\261=\001\201P=\336jW=\307\2128=SP\310=\336\373\247\275\330\205(\276\'\206\274\274\356`1\275@\355\351\274b\363\304\276\223]\021>zj/>\331\253?\276(\350\231=\266\225p\275n\241V\276x\250\n=\211\320\331=+Q\007\275\310\2675=\351r\r=\332!t>\230\355\376\275)\346\037>UE\'\275\020\006\271=x\036\353=\273\242\016\276\223Sa>\372Jl\276\336\335\020\274\251\241\356\275\004\376\377\275\221c\250<+1\267\275\276q\326\274\206u{\274~M\315=_0\265\2752\255\362\274\026U\033>4\375\216\276\375\367\261\276k\320\234=\214\230\275\276p\021\213=I\2105\276l+\214<O\313K>\221ei\273\274\244\216>\230\365\217\276*\332\200>\256\026\251<\205\365\270\275\001\\C\276\217\264Y>{\177\302<\261:\247\275\216\213\r\276\243l\205>4\301\361=\007\363\313\275\n\355\t\276\025\202Y>(\237\217>\360u1\276\225/+=\227LR=E\354\225=Z\246N\276\300\247j==\357\245\275\013\354\244\275h\250\225=s\\<>\033\273\213\276\307\006;\276o\262\013>\216\257\224\275-\233\371\274w\312(\276?\250(\274t!\236=\276\2738;\313O\241=\215!\346\274\342`\'>\"\271\203\276\200*\243\274P\311\274\274YB\317\275Z\n\020>2\360\216<h\353\212\2766\213\014\276z\326B<\010\273\241\275\365g\r;\232\251B=A\253&=T\254\222=B\360\214<\315&\367\274?\320E>\350\366\025\276dTW\276^\374\027=\241_\373=o\317|\275\211Z\201>\031\262\257\275\366\206\341>h\321\257\275\373\021\022>\265\320A>\361H,>\374#\206\276\002e\205\274\231\357\226\275\217\261\230\2752\033\001>6J\326=\347o~=\036[\002>Lg\201>\235:\001\276\260\277\270<f\3246\276/\t\207\276D\001\260\276wV\005=\377e\240\275fP\213>>\372#\276\265\n\371>Y\251M\276\370\341\002>\037\377\230\275C\316\023\276\370\231\234\275\210%\301=V\361\305\275k\024\013\275\261\332\352=\"\306\025\276\347Q<\275\261e\261=\331k\240\276\367T\351<\340(~<\334^\014>\233i<\276>(\\\276\357\211H=\224\223\221\276\267T\341\274\335>\251\275\247z\236\275\261\317\224\276\367}\365;\230\\`\275m\'\235=\360\314v\276<\206\261<\356\247\361\275\361\255\271\275\264\266\007=\236ku>\\A\331\273\352\376T\276\004\177B\276\327\333Y\276MQ\030>\305\353g=\210\356:\276\301\257\237\275\032\257\204>\306I\214=\275\245D>\266|\321<9B\275\275(\016\025\273@+\362=\006\244\227\274\341_\330\276@C\326\274\r\356\234\275\\\365N>t\321V=\267\206f>\220]\r\274\3012\310\275s\335[>l\272\276=\240d\216=\3063O<\037\367\031\276\217U\265=\022\353\242>\221W\306\276gj?>@\250-\276af\n\2767g\232>\365Z7=W\261\327>A\221\236>\271\031r>\212\337\224>p\006\360>\274\022\177\275\010Q\235\276\33667>\355\211I>I]^=\264\210\212\275\351\211\334=V=\214\274\337\221\216\276v\323\351\275\'\353S\276a\326[>o\332\322=\235{\006\275\311\320\212\276\344kF\276\367\023\200\274;wd>\275ea>\342F\373<7os\276\t5\330<\021>I\276\242T\'>\256\321y<\270\310\206\274\273=^<\2274\260=\315\007\027\276\256%S\275S\261\007\274\352O\330=\004\200\337\275B\253\033>\260\337L>pN\225\275\247\345}<_\312\223\274\316\351\020\276?\341\265\276\244\210\254<|j\200>=\026\214=V\206\030\276\022\266\374\276\314\241\254\276Y[\036?>m\311=T\275l=2\343\'=\327\016\266\276,(\326\275n^k\276VP\327\275E\300=\275\245\207m=\307zN=\220\255\273\275\333\345H>\352\0349\274\020\250k\275,\236#\276C=$\275\303\253\235\275\t\355q=\314y\206\276\367|\315\275\027\345\030\275r\271\023?\232\266\201\276\274\306\202>\374\262\223<\205\252\226>J\0253\275\337 i\274\252y\242\275\307\215\237\275\263\227\315\275\207u\023=\243\032J\276\235\\\347\274\212\204\234\276\266\224\326=\010\030q\274\373`F\275\371\017\000?\367V\212\2761\035\036>\036\335\375\274B\025\264\276K\351:\276y\007\006\276\317\366T\273x\237-\277K\330\206=\"\326\022>\005\256(\276\256\312\032\276\010\035\007>\271\rO<%#\346\275\357\334\372=M\023\023\276I\034\220=\317\330\223\273B\322\260\274\304]\002\274}\370\027>\3159\276=!9i<mE\306\274\241\370$\275\032Zg=V4\024\276-p\264\275pa\r\275qh\000\276\314\3661\274\377v\311\275\274TQ\276\030M\261\275\'\014\317\275\345,=>\226\213L\275@WP=\203\225\253=\323\274\257\275\346\323b\276/\341o>s\366\356\276\355\313F>x\200\267>\267S\315\275\320\035\332;I\327\222\275L\270\002>l\362\223\275\270@\252>Bb:>\2131\275=\214\310\033=8\242\030<g!\225>\337r(\276\251\000$>\341\032\242\276\010\205\310\275\n\314\257\275Vx#=h[\314=\223\360\032>i`4\276\271Hp\275\250\033\264>G \213>\346\331\347\275(\010v>[\346G=\263\201\031=\270\016\223>:2\363=\0369r>\242d\325\272\202\331\271={\367r\276\303\345\341\275\206\241(\276\277\242q>\025\345\274\274\236\235\212\275\326\362\201\274W\344W\276\333\352d\275x\006P\2763U\341=M\2463=N\001a\275sX\277>\377\250F=\355\244\223\272\2734\036\276\035\320=\276\202\235p>\026\036\'\274\002\370\337:yHN>I\234\t>R\245\265\275Ab\206\276\267\0172\275\311\264D>\212o\263\276\366\3151\275\267\017W=1\345\364\275\260J\001\275x\020~\275\242s\300=9\034\323\2742\315D=\006p\020\275\312>#>F\211K>e\'\223>\212\215E>\r\303b>e\010\340>\311\360\240>W\004\025\276\026\"9\275\340,{\276t?V\276*\303\257>\326\244\202\276\r%\277\273\310\025\006\277:\233\217>"
      }
    }
  }
}
node {
  name: "b4"
  op: "Const"
  attr {
    key: "dtype"
    value {
      type: DT_FLOAT
    }
  }
  attr {
    key: "value"
    value {
      tensor {
        dtype: DT_FLOAT
        tensor_shape {
          dim {
            size: 12
          }
        }
        tensor_content: "\032R<\2751\217\026\276\243\272\302\275G\315\306\275l\377\313\275o\225\263\275\014\255\252\276\261\356\273\275\316\340\303\275\326kf\276{b\362\274\211\020\337\275"
      }
    }
  }
}
node {
  name: "f4"
  op: "Const"
  attr {
    key: "dtype"
    value {
      type: DT_FLOAT
    }
  }
  attr {
    key: "value"
    value {
      tensor {
        dtype: DT_FLOAT
        tensor_shape {
          dim {
            size: 3
          }
          dim {
            size: 3
          }
          dim {
            size: 12
          }
          dim {
            size: 12
          }
        }
        tensor_content: "\344\016,\276\242\205!\276\213.E\276+\326\022\276\272\357\243\2758\\\225\2738\360\263=\262\260\024>=\315\032\275\263?\233=x\241\265\273\030Y.\275*\203s=\325=\004>-\265\222\275Syr\275\264k\265\274\225R\223\275\225\\\215<\237\020?\276\325H\343=UG\204\276W\260\331=1mW\276\372\006\236=\350\3040\275\032\226\303=\031\033\277\274\314\330\205=\366\211\000\276\277=E>\226\230\231\275X\365\215\276\316\251\244\274k]\240<QP\033\276R\326)=uS\221=}\255\352\275\036\n\256=\241\254\235<F\017\351\275\353\351\n\276\317\265\'>P\036\206>dI\252=[\274\017\275\314\366\037\276B\207\'\276>S\326\273\000\024\014>\017b\"=n\264/>P\374v\276\221\271\237\276F\246\300\275\303p\010\276\3738I>\"05=\210\031\231>\372j\251=\366\346\374>~\203\001<\361F\370=\213\315\023>I\177\255\276\203\220\203>5\2653=\014 5=\246\362\014\276\017\341\307=K\333\333\274\345\024\244=\231\225l\274\026ZT\276\003\303\007=\307\225Z\274\322\3450>\360\357\">\25323\275O9\220=\034gD;I\237\244=\030\360s\276\220\006X\276\274\317\217\276\251\327\356\275\246)\302=Q\372\235\276(\313l=br>\274\301\300O<\256\022_\276\221\222\206\276X\342E=\023\002a\276\013\303\345=/\332v>\356nW\276\322RZ>\275\360\215\275\320r\305\276m\004\006?\320\232\246\273f\330I>E\\\224\276?{\023\274\373\264\014\276/\\M\274m\224\211>\233\004v\276/\265\312\273I<P\275w\364\334\275\343(W\276\362\360\335\275{(\024\276C1\272\276\210\037\010\274\333.\275\276\201\242\026=Q5\305=\235\320\325\274\274\265M=$P\372=.EI\275VK\027\277\3640\333\275:Gj\276\274\036\r\276,\350L>\232\020(=F\014y=6\nR>>\344-\274\342\214\353\274\016\310\244>\3165J>\267\312$\276\035*\362\275\345?\340=\001\254V\276@Aj\276\213\346P\275=\205\032=k\330\202\275\006P\361\276X\266\336<\247I\020\276[\276\363\276\017\257\354=\022q\232:\347\360\306\275+\220\333\275\n*\236\275q\242q\275\246\257\255<\032\267\225\275\036?\362=\372E\376=\3279\000\276l\036l\276\242\017c=\277/\250\275\212\213\354\275k\245e=\005\3317\276%\214\265>/M3>p\\\311:JA\036\276\017D\273\275\347^\257=\031s^=R\3001>\242\372\270\274\362\251\236=*\017\233\274#,\341=\017p\027\277T#\217\275S\371\205>3m\020\276\303\240@>QU\327\274\233\231\206>\272\006\034\275\260\003\014>j$\311=\331\312\217\275KI\226=\200\017o\276\030,\243>\275\346\273=c\004\263\276~\315w<O\345\212\275\313\207H>\241l\215>\264\343\304\275\210xZ>\212`\221\276n\257\205\276]J\205\276u\006\025?\203\363\270>\333\037O\276j\034\001\276\321R{\273nY\277=\271\331=>\217\333|\276\333\007\026>C\021\331=\302\372t\276\224k\004\277f\2612\275\036\025S\276x\026\234>\326\323n\276\023\333\370<\367V\230\276\260.\204\276\234\205\211\276\307)\346=\207ZJ<r\"\372\275U\345#\276\025\327\030>\225\275?\276\350\220\371<\352U\340\275\3074w=\367\227\210\275|\230\215>;\320X>\257sH\276\224<\030\2752\352\006\276\014\273Z>M\231}>\347\267\026\276\007\236\t?m\3376\276\025\350\261\274\366\327\004>a\317m\275\303M\301\276|(\200<>\036\326>|!\345\275\245\256\225=\352\263\276\2751\273\022>N<\007<B\261\002\276ED\252\275\325\265\334<~\325\252\275Aj\223\276\017\325$>\243\200\220\276W\374\321\274e\314\r\277\212>\310\275\024\371\321=w5Q\276V\322\r>\272\316\014>\314\324\256\275\005\374\373<\025\017\210\275\023\361\037\276S\312\007\276w\354\023\276\235\030\206\275\343\257\005<O\317\242\274\200}\325\276\225\007\272=U\274A>kR(\276\247\344\214=\003\265\256\274yK\210>-\236_\276[\207R=\347X\271<o\330\212=\340\364Q\275\376p\346=\351\227\360\275\266\000\245<\373\037\000\276D\214\361\275r\003\214\276\304\241\020=\222j\237\275\217#\211\274\202\'\364\273\334\375!\275\353Or\276\367O8\276(Z\260<\323_\312\276\350\302G\276\020|\231\275\223\021\200\274\314\0331=\367dF\276jGT\276&\251\252\275\356N\016>\332\026\262\276d\356!\276\207\252n\2751_\004\275\026\365\334\275\300\347\252\275\307J:\276\314\265\020>\362\025Z>\314\'^=\237\241\202\276IY\354<*-\025\277\t\022\357\270t\275\245\276=\rd=\271\273\264\276\215\261\270=\336d\226\276\332\262\007>\236=\260\274\207g\240\275\325\223+\276\036\013?>b\251\355=\216\030\033>\227\213w\275t\002\313\275y4\014>\367\202\023\275\006 =\276\"\223\234\276nQ\274<d\022o=\270\376J>!\321\355=J\267\217\2765\201\234\276\014\265\252\274\330\007\007\276\2633x\276\375\357\253=p9\270;\322\357x>\244\230\013\276\211\0242<y\241:=5\206\264\275pF>>\210\256\234\275\327\242\272=_\017\007\275j\274\013=?\245\267=_9\226\275i\335\237<\311\363\033\276z-?\275s\254\220=\240n\214\275Ja\321>\332\220\310=\233\370<>\317P\272=\300\352-\275\323q\225<\025y\022\276\037\352$\276\360\233Y\275}N8>\231\247Q\275G\003r=\255\271\221:\327\223\002>\266\233\004\275\227\3421>\356P#>\333\267z<\367B\221\276E\n\314=\371\021;\274\347\364\276\275\374\275d\2760ge\275\267.\035\2763V8\276\221\243\240=\207?w<a\354\247=\317\325I<\372\376\254\275\220\337\367=m\017\231\276\245+\254<\334\026\236\275}q\323\274\240@M\2763\256~\275\234U\214<\355%e\276\001 \305\276qk\236>1wg=BR\020>\275P\031\275Y\257a\275\242yS\276\225\3147\276\376\022\260\276\256\347;\275O\004\340\275f\327+>\n\016\205\275\224\225a\275a\277\231=2\333B>\360n\250=\017\335\037\276\243\305E\276_\376Z\274:(\303\276\246\266\210\275\001\242c>D\3515\276 \352\000\276\3138n=\203\272\236=\210\244m\276\317\350\n\275\200F\331<\256\221\211>\233Cy\276\317\004.>\241\270\037>\222\215\273;\370\210\220>\0329\270\274\305\037#\276s\333`<wbF\276^\001\265<\220c\250\275-q\214\276\031\342\215>\302\230\371\273P`\027\276I\343\212\274\342\354\260\276\035t2\276&\357\037>\247\003s>\237g/=\023\234\303\274\334-4=\243\037\r>\017\002\230>]9\254>\322\222\361\275\352\377j=\2616\312\275\021\3051=\000\037B\276\362\277R\275D\242\211=\024S\025>\005\"\000=\'\177@>\277\306\325=n\027\345\275\363V\030\275\026R\366=\231|\374=z^\275\275\203NQ\276\257\254}>\246\371\263=\232\3712\276$\377J\276ih\202\275\356\\z\276\237\237x>\232\302\021\276\036\363\254>\313\333\334\276\327T\333\274#\002\306>\360S\307>\260\364\210\275\303~\314\274\2462H\276f)z\2763u`\276\330T\243\275Vf+>6*I\276\305\362<>\303\177\362\275\3012\027=\356\026\2649\250l\205\275\313\363 >-\341\320;\261\252c\276Ad\304\275\373G\360<\271^\021>\371t\356\275\354\333\275\275\326\225\231=7w%\276\"p\371\275\037\006\325\276\"X\316\275}Y\277\274\031\327\332\275\0004\332\275\261\247\313=sl\302\275\255E\250>\372\3129\276\325k\347\275^X\271>H\257\036>N\334\203\275\274gi\273v\026\017\2758tF\274\272\347\211>\361\202\220>c\322\206\276p\350\020\276\360\333\377\276\251\333\354\275J\252\260\275\274\252\310=\343\310\367\275X{\016\276I\307\266=\025\347\213\275\251@\207>\214\366w=\275TO\276\023\003P\276u\314\254\276\302\355}\276\351\263\005\277\\G\307;\217\006\355\275q\312\024=\204\020\000>\203:6\276>a\316\275\033\336\016<\246\230\233>G\340\323\275\242e\251\275.\221\t\275\036fK\276\3138\370=\020\307\210>\215\004\t>\252\266\270=\033\n+=\310?\315=\252\250<>fa\267\27686\262>R\'K\277\016\321h>\304\364\325>\264\004\276\275h\320\362\276\373\240f\276g\363\331\2762x\n\276C\346\225>\354\374\311\275\335\357\355\275v\207\334>G56\275\254\245\254>\332\301V\276\323U9\27638\220\275\330\\\004\2774\220\353\276\037\357s\275\267O$\276z\357\273\276\317t\240>\206&\026\2766a\032>\260\342\221\276\'\251\235\276@M\324=j\301\347\272\371\242\250>\332\355\210>\347e\211>C\254\027\277y\032w\276gv\340>\250D\004\276\\\262\001?>_z\276\347\014\243\276\257K =U\372\207\275\350\353\267>\244=x>i>\302=\316G\">\313l\333\276[G\264;\260\242\331\276\207\017\350\275\005\362\352\275\255\000\020\275\362\277\2359\302\032\007>\'\001[=z\255\352=\310\351\233\274\274e\024\276\035 3\276\350\376\036?`k\027\275le\203=\345\0358>\354\246k\276\371\336i\2741^\320=\024\265\036?\376\325\023>\207\246\241\276\027\234V>\202\261U>\361-z\276\355\212\231<\376\321\204\276\234\230k><\233\300=\363e<\275\t\244p\276\236_\312\276h\031L\276\023Y\346\276\030\204\217\275E\263\225\276\355\370V\276D\246>\275?\004f\276=\0376\276\376T\355>\0346\314\275m\033->\244n\301<\314\361c\275Y\332A\2763\226\014>\277\366\204\276\273`&>\222t\214:\3051\216>\331\346c\275\312\315 \274\377\rq\276\307\026\235\275\007\276\322\275\370\321]=W\315\375=\215-\344\275\375\205r\276<\350\207>@\370D\276\321\302M\275\275\277\265\276\333\\\225\276M\333\356=\371p\001\276\210sB?\377\346G>\245Ck>\363:\205\276|w~\276.\325\021>\221\275Q\276\221c\240=\214\307\275\276y\210I\276m\277\230=z\025\313\275\233]\270>RT\320=7\323v>P\351\235\275\315W\214=?\340O>\254\304\005\276\027_\256>:}\033>\350\330\262=\266\251\237=\224/\177=W\367\027>\3570\352\274s\034s\2755\251\230=\226J\244\275\003\223\347\2741\026g\275\335\r\312<\334\r{\276\266\024\023==\335\254\276``\366\274`\216\217\275\206\314\337\275\231\363\356:\264\360\251==\343g\276\262\301I<Z5\t\275\036\367U\276\342\321M=\010\203\323=\336\313?>\363gz>\2378\374\2750\247g\276\014\020\213<\374\317\222=[\355\203\273\370*@\276\233P\376=V\270\030=\271j\320\275\332\372.:?h\202\276\316\345\204\275\t\254\351=M\037\226\274\036\240\333>8s\271\275j\022/\276\316\032\026\276\312\031E\276|\363a>%Y\212>\2644\263=)W\261\276\232\251M\275\247;\217\276\306\316\311\276\210%\311\276\211P\021\276\276\026a=`\013\201\276*\222\002\276T\201G>\t\r\273\274\263\206\030\276\306\220\324:\323A\225\276PK\200>al!>0\217\233>\314/R\276\371*\273\276\036\211\317\274\004\311\203<.\002\231\276\020\233k>\370\336\322<\300_ >v>0>o\3376>\240\245\305\275&$?\276\237\3061\275H{\'\276?\216\206<,\236\003\276\346*}\276\346\342A=\327 S>\002\304D:v\3301\275\377\357\322=\351Rg\275P\312\026=\313\017\302=6\244.\275\320\202\223<\364\224\271\275*\301\271\275\026\336\037\276\264\346K=G\372\337\274c\301R\274\014M5>)\224G\2757\247\227\275e\037|\276@I\006\276t\226\204\275T\336f:\274\343\305\275\025]\366=\351\t0\275j$|\276\232\366\311=\032\313\214>\375\317\013=\242\257\272=\362(a\276p\027\217<9\305\205=\264+\327=y\334=\274\030E\263\275\321\313\006>\030\r/=\3602D\276eSV>\307\341\233>\377P<>\"\235\241<\004f\355=\016W\250\276\364\320\372\275X\330\023\275\264q\201>\246\036\377=V[C\275\320g.\27644\264\275J\000\017=\020J\017\276\322+T\274H\221\237\276l\315\326\275,\270`<\357\365F=\003x\250=\247\007\313>\274\372-\275a\2041\274\272I\003\277\\\316M;\205KD\276\035\212\376=J\316\354\2751\031\002\276\310\026\312\275\271`\021\276\375\351\r\276\373\335\210\276\200\000\032>\010\332J<\360\014\217\275\201G\033>2\025\206>1N\324=\302B\"=4\021\351\274Zh\212\275\021c\272=w\347}\275\"\322[\276R\242:\275\027x\344\274\251\022Z\275B\324\251\274\351\250\305\276o.i\276j\235\"\276\2268/=\2503!>\300\360\214\275\375\227\305=\310h\327>,rI>\353\270\340\276\007vQ=\251T`\276G\342\335\275m?\231\275\314\276\304\274\014\375\227\275\242\025c>\025\305\016=i\314\223\275v\006\253\275\003\275\023>\335\317\326=1\317\335\275\266\213\"\275\200\207\003>P4\314\275\000\2224>j>\235\274>\002\332<\250H\037>\033\272\310=g\360s<\3463\241>L\244\000>\300g;\275\006\304\370\274Q\010\220=\215]M\276\3412I>\3562\n=$\027\276\274\333\271\267<\322\325)\276\241\272\230>\014\342\304>\375s\205\276\321\265\361\275\032yS=@5\341<\t;c>/oK>\266_R\275\223\303\231>Q\226\265\275-R\204\276Q\260\271\276\360\256\255=*\375\241>b\374&=3\321\020>\177\314\\>\255\200<\275|\004\036\276)\006\302<\233\364\335\275\341\2134\276\230?\";h\237\r>\024\243.<c\320s\276\035T8>\350\353\016=\242g\312>f\303\022\276\345=\237>\221<\326\275\357H?>A\014\005\277Xu\360\275\255\367$>{\314y\275\005\013\216>\311X\020>\366Q\035\275\241Y\303>\017\004\003>\344\246\235\274d\251\262=\277\241\347\273\\\357\213\276+\375\212>\322+\233\276\362\032\374\274\342\311\000\276]\345\224\276(Ww\275\2611d\276\255\005\000\275\257\030\t>n\2618>\351e\320\275\371\231!\276o\320\340=\370\256\304\276X\220\325<\321a\346\2754\332|\275\241\223\024>\362\2330\276\246\211\014=\200\322\243=\305\367N\275\210\274\036>\261\255\312\275\3453\177\274\374\005\237<N\037\260=2*F>\201R\253\2749\305\312\275v\004\003=\370\347\242\276i8\020=\231xA\276\312\362\366\274\253=?\276\277VJ>\264\031D>\373g\255=c\rC>\224\371+\275\034\206\r\276p-\201\276#\030\253\275\250\3041\276\345\3516\275=m\371\275\215\202{\275\303\014a>\026\343\235\275\025\347k\274,\322\203\276\242\362\026\276O,b\276\231=\254=h\201\273=\2660Q\275b\322\217\2768\365R>\335\353\232\275\302b,>z\026}>\303\332\237>\302Y\004\276\336D\350\275\227SK>p\326\333<\310\346>=\037\352\352=\356@\022=\311\337\242>\016\3034=\021\314m\275\352)@\276U\022D>\343nQ=\035\034\267=\211\341e>\307\255\221=\320\020\262=*\262\241>\223U\311\275\013\211\000\276\224\214\316=9\014\266=\203\275Q>\254\273\221=\352\363\330=\2263a\274\370)\236=_\025#\276\267\244\n?C\315\340\276\004n]\275\215_{>\276\2723\274\220\256\201<\005\232\310\275\267/\244\276\265\235\037\276i:\363>3\262\t>Q\203\347\275\320\212\272=\313\361\306=\0100\365=\253L\022\276\034\0049\275y\226S\271\001;\177\276+\347\r\2761\345\205\276cx\244=\352{\256\273\241\375\307\274\3634|=\004+\323\275\370(]\276|G\337=\204lT>\310\353\024=[\370\372=\212#B=\335G\332=\343\370D\275 2%<B\030L\275j{\334\275\304\004 \276\373\355\234\272\221\216\322\275\033$\256>\256u2\275\203\323\232\274\206\220\247\274\355{\024>g\301\214\276\263\216\262\274\337\024\026=\252n\005\276\017[=\275\325H\210<\350\333\342=I\245\025;\220\320\214\276e\371P\272\354\237\364\275_\315\356<\006D\025>\256\037\206=>\211|>\316d\230=\t\324\000\2759yp\276\266\225\345\275\'\0133\276\223l\261\275\362j\216\276\246\333\255\275h\223\033\276\354g|\274\216\340\205=\213\007\351<F8\016>\326\323\036>\013\321\270=U\346|\275\326\242\021\273\212\304\344\275\354\n\213\275\372\177J\276\312\321\317=\261\027\362=\301A\247=\362\005\236\274\026\377\361\275\337\266\243>\004V#=8V\246\276\0045\311>\347\321\270\275\350\261\265\275\301\n\212\276\004\331\311\275\376\277A\275\023\324\354=\'\316q;\253\035-\275f\263&\276\000\274\270\273^Xv\276\002v\376=\271`\306\275\362WY>]\367\263<`fd\276!\221\'\276\017\260\006\276\260\260\233\275\330m\304\276\010\356\300\275\257i\027\276\220h\203>>\206\257\276\362\2202<\r\365\312=\216\214\206>S-(=\357W[>HNq\276\2663\205\276\313\215\347=\2411\023\275\003\305p=\202\350\202\276\313\212\307:AY\273\274\027\205|>\226X\245\274NxI>A\213L\276}\032\004;Cj\347\275\022\227i=f\303\304\273EMc<_hE\273\325r\026\276\210Z4\275\241\022j>\362K\014>4)\214\275l\275\n>#Q\256\274\220\r\r>4\206\\>\022E\273\275|g\327=_\203\325>\206\376\\\276>\210:= \226j>\365\017\227=}\306\235>\211\332\333:qP\250=\356Xz>\3521(>,Ic\274\031\242E\275\020\222\020>\246\340\332>\021g\300\275\372W\224\276;\333\314\275R\372\256\276s\317\255=U\223\200>1\276I>#Q\213=\313\335s\276\333\343\002\275\177S\025>\007\321x=\340\030,=\226$\246\275\034\241\214\276\014}|>h:\315=\302\253\240=1pZ>\364\033\220=%\320#\276\250RJ>\307\252\207>\317@\010>5\004\024\276h?)\276\317%P\276\237E\242\275\203P\361\275t\355z=k\370&\276\032\036\332=\n\035a\275\264\250!\275Vv8=\rjb\274K\261\237=C%%\276v4\n\276\337M\003=\244`\207\275Y0\311;#8\032\276\275\256\275=\211G\030\276\025,=<\210\336\021\274,\3324\276\215c\016>\210\346%>h\246\355\275\330\3226\275j\220\212\275,\214\037=\242w\013>\237\341\021>i\312\250>~A,\275c\'\223=:\332<\276;\024G\275b.->\331\336\217\276\237\222A>\263\267]=4\032\006\275.;2\274"
      }
    }
  }
}
node {
  name: "b3"
  op: "Const"
  attr {
    key: "dtype"
    value {
      type: DT_FLOAT
    }
  }
  attr {
    key: "value"
    value {
      tensor {
        dtype: DT_FLOAT
        tensor_shape {
          dim {
            size: 12
          }
        }
        tensor_content: "n\272\224\275pCW>\200\355\002\276p\372\004\276p\2612\275\t\276\300\276m\'\344\275\323\351\214\276\002\302\016\276\323$<\276\271\3533\276\252\'\365\275"
      }
    }
  }
}
node {
  name: "f3"
  op: "Const"
  attr {
    key: "dtype"
    value {
      type: DT_FLOAT
    }
  }
  attr {
    key: "value"
    value {
      tensor {
        dtype: DT_FLOAT
        tensor_shape {
          dim {
            size: 3
          }
          dim {
            size: 3
          }
          dim {
            size: 12
          }
          dim {
            size: 12
          }
        }
        tensor_content: "\360\324\\\276\310g\326\275\367>\271\275\274\332M\274`\323-\276\205\307\347\275\212\\p=?b\">Wp\365\274XW|<\241\206\037\274\241\265\207\274\310\003\344=Ei\250=Z\177\027\276\035\304\255<:\305\321\275;\252\212\276\210S\262=\r\247g\276\252r\216>w\367\230\276{\216\007\276J\334\300\275\352\023\265\276\254b\232=\252R\241<+S\334=x\037\345\275\270yF\276\230\233M\275\317\360\">\252\331\232\275z\256\020\276nO\374;$\035\227=\202\353\206\276\027\327-\276\342Af\276Y\251\022\275H*\370<1\304\364=]Z)>\201\320K=\203\370\017=f0\242\274\343/\240<U\374\375\274\300<I\276CB\206\276\226\342k\275\350\362\321\275\215v\332<\337B\203>\313\271\354\275E\006/=\226\tc\276\377G\247>b\212<\274\nB\352\274\360\2243>\355%f>N\305\312>\263bz\275\373\343\316\275\002<\036\276\243\004\303\273\316\362U>w\260\215\276\224\016Y\275c\320\032\276\215\336\007>\r\317\304<\202\217\230\2750x;>\034\362\352\275\333y\270=-F\025\275@\"A\276\217\250\242>\246=\013=f\321\207=\030\257\254\276\237\241\020\276\225D\034=\371\303\201=\314v\226\275\377\211J\274\317\\_\275\203O\243\275dH\033\275\003\014\014\275\250sO>\276\201\375\275\225\257\275\2754*;>\334\324e\274\344s\362=t-\237=\223U\025=1\033!\276i\202r\276\310\004E\275\\\373\234=b\235\202\276\2037`\276\2022\307\275\002\324\337=\311\001a\275b\313\256\276=\243_\276\266Q\026\277a,Z>V\316\036=\0265\355=\r[ >,\377/\276+A\251\275-\353\213\275q\365\250\274|%\224\276\202L\n>\247Z\222=\242iX\276D\330\201\275d\200Y\274\230l\201>_\375\204\276\361\0046>\321\010[\275\276q\320=\250\266\202\274\025\217\276=)\267@>\261\231\213\275#\340\207>\357=\332;\317d\334\275v\221\'<%\023\330\275$c\205>\243\\-\275\301zK\275\027\215\227\274\353\220\035\276_x \275/\014E\2762\340\335\274\034\2203\276\277]u=\212U>>\312xM\276|m\226\275\024\340b;\024k\247\275r\212\217\275\017V!\276\211$\214<A\362m\276\255C\002>\226B\273\273mL\010>\014\017?=\340\201;\275{\346:\276\244_k<\226\367>\276_A\307=cM\373\275\030\337\r\275\027\222\222\276\215\266\372<D\264\344<\037\323\235\276f!\223=fi\377=\245/>=i\037\212\275\231\253\t>M\223\235\275\340\3235\276\326\232\036\276\325)c=%\227\201>\353\234/\274\031\001\213>_#S>\334\225T=](\213\275\236\212|>\001\265a>!\016P><\001!>\014\345W\275V<\314<\221^\315\275u \344\275X\276\227=k\236\235\276\231\202\026>Y\031L>\235\236(=zE\203=\360\261\321\275\253\345\036>U\263\213>\370=\311>9z\312=a\350\004>y\307]<\203\r\211\276xu\316\276\313\026\002>^\324\222\274(\301\316=\332\314\032\275L\007\365\275\233R\213\276\3632\277=\216\020\303=\246^#\277=}v>\033X\336=a\334\253>sb\345>\242\267\362=\267\t#\2769\277V=I\317];_0,\274\224\357\365\276\265\365==\016!V=\245P\376\275\2121f\275\035\336\206\273G.\020\276E\353\256\274\236\347\037\276^\323\014>\\\236\330=\026\253\177<\311\304@\275]a\212\276\346_\233=/Ln\276\025\243\333\274\235\253\210=\206\367\277\276\036\317\377\275\304\250<>a^\274\276\014\217K=g\341\212<W\222\326\275\357\323\345<\034u+\274\\\260\355<\335T\253<b`\024\273e/\020?\217TN\276\332\205{\276$\254\322\274\376G\227=\367\035\002\276X2\220\276Ic\033\275\275/\000\274\255ML>\250\261\335\275\265\214\266>\002\002Z=\364\225\334=\213f(>(\375U=\360\t\034>\302\227\276=\371*\247\276\371O_\276\253\356\037>F\031\244\276 \373\211=\255\227\026\276\256\027N\276\351[K\276\245\356w\275k\266\257\275\273d\'>Dk\203<s\337~\276\351*<=\336a\222\275\217\342[\276\357!d\276\242@\006>\'e\250=b\375\304\275\373jG:\r\364\032=u\336\014\276\362z\230\275&\350l\276C\013\251\275\240\312\305\275\262\002?\275\264\357\217=K5\375=}\226\223\276\202~N=\271[Y\275E\206\352\275X\266\212\276\211:3\276\332\267 >T\\t\274lg\373<R\241\001\276\030\221\373\274\202\266u\276Z\246\252\276\0076\355=\304EO>\003\373\333\275\002\010?\276\274\\g\275;:\373<?\353\004<-\177\212\272hd!\275\233\241x<\265%]\275\007`+\276S;\234\274\274\315\005>\252\224\237>?o\202=3\227\320\275\276Hd<\300\002\236:.\367$=\305\036-=J\352\260=\016\236\252\276Vuj\275\367\323\253=\235\235C>\373F\245>B\200\360\275Ge\237>\227\241D>\262\023\224\274\254\302\232=\200(\305\275O\000\371\274\2271;\276ES`>V\212\300\275\'\341\002\274\361\327T>\254\001\214\275\'6\030\274\312\007\211\275\251-!\276\216\264\376\275U)\237<\023\324\204>\270a\r><\337\223\275\227\2373= \030\034=\010>k\275\254\340\276=\2733\343\275\255`\331\275$5\016=\200\"\343<\231\225@\275\330l\345\273.\2203>\361\010\002\276)t<>y\236\366=,\267\022=\022\023\252\275\304\032\220\276\315\307\223\274x\250\261<\246M\200\275N>\006>\010)_\275\031q\177\275Z+\307\2751\266f>Z\232\306\276%\227\305\275a\235\254;\207eJ<=,\353\2755\027\004>\"\253\325\275\336_G\276\256\226\255\276\027\337\202\276\375\213<=\216\311U=k4e>\027\320\213>\214?\003\276\314\234\256>x\004Y\276XU\010>\004w\272\275(\024\352\274qR\201>\373D\347\275\270J\206\276\366\007\225\276Hv\322\275#\225\261\276\010\233P\276\230V\342\275l\314\363;\001\017\021\276\014\220\337\275\230\372\237\276P\366f\275\022\304Q=\252\305\243\276}x8\275\004\344\256\275\333\007A\276\232X\036<\324\370\301=\300\030\014\276\365\326\345\276\265\336T\276\237)\221\276\315>]>\336\270\251\275\206g\337=\027\032-\276U\345\020\276!\\M\276\370\245\032=L\331\336>|fh\274\235u\357\276\340R\177=\345\005t\276\226\314\n>\214\264\325<y29\275\334\252A\276[{r\276\214/Z\276\362_\344\273\177\373\205>\255U\371\275@\323\336>\"d\372\276\215\300\"\275\016V\026\276\177\255\216=\375\273\202\276\237\251\333\2767d\004>M\367\001\275\241]\005\276\264\254u\276c2N>a\257\206\276\315\212,>\300\021R>\337O>>-\331\336=\240\376U=\r\3533>\241\274\232<\240\032O\276\311\034I\276\263O\'<\016QT>\253B\250>\251\000\301\275\031\361R=\256-$=\352\274\200\275\021E\022\276\356f\021\276L\006Z\275\217|\355\272b\020\257>\346\313\231>\225\177\225;J\234\001>\255\327c\276\366\234@\276\006\371N>B\323\331=bY\270<\305H-\276\3324\006\276\030\236\316\275@\364\253>3:/\275\367{\373=6\246\023>\220!\204>Y\334\227\2763\247]\276V\367\240<u\n\371=\001\213\006\276h\224\254<\221\3434<\372\017\201:\314\344\326=TZ\377\275\005\330P\276Zl\000\276:\0211\275\311B\010>\225\247\021\276\306\330\036>\334\037\233=DQm\274W\"-\276\362\000\312\276l\246\t=ZY\037>\030\233\030=8\373\240>H\301\005<\r\235\315=f\3125=\326\326\"\276\344\025\026\276\335\274N>\217C\356>\366}\001=5\\\217\276\246E\231>6uS\276~\313\260=\3149\255=l\3365>\334\271\334>\027f\217>\334\206->\243)N\276\353i\231\275\022\273E\276\314)\260\275\031^\376=\005r?\276\215\355V\276\301#\344=xM\207>\270Q\271\275\251\324\017\276\201;\350\274\226\265:\275\213\354\321\276M/\316=\244\321&>\003w\203\276\231\303\205\276b\244U\275;a\305\276(x\000>H\252\234\276K\353\250\274^\3141:\313)\037\276*k\260=\020%\245\276\324S\202\276\311\343\313>0\n\315>K\260\245\275\210\361\351><b\312\276\355\340$\276\263\245\271\276\235X\300>\335\253\202>\025Q\032=7T\265\276\211_\355\276+\252\225>\3253\237>.%\026>F\334\336>H\037\243\2765\236\320=\272FR\275\037\242\031?\020\342\220>=\342\306\275\322%\311>]w\314>\300\261/\277mq\221\276\377\254\226\276\007`\212\277\234\024\231>\314ar\275x\206\024\276\\Q\376\276\241\271w\276\2266\371\274xR\340\276\231v\317\276j\303&>2\305y>\257\344>\276\0041\254>\252x\033\276&Lj\275\232#\212\274!?j>\304S/>\032\322\204<\371\371\364>\"S\376>\026\310\375\276H\326\215\276\231%e\276\005\313\332\276\246uk>\t\'[\275\03537\276\035\311\263\2762\346\007\277\353\222\336\275C?\210>\230\201\257>\361H\006>T^\260\276\036\265\013\276\267\2157=\327!\207>\362\325\r>K\021W\276u\325s\276\331j\225=8\353\373<\221N\347>NJ\217>\313\272\354=\270\3163\276\333\317:\276EL\341=ay\345>w\2520\276mL\025>\002k=\276\225\322W\276\031[S\276\350\341\006\276I\352z\276\312\366\244>\346z\362=\346T\276\276p!\360>p\t\014\276K7\222=M,\242<\335\362.>\324k\207=Hy\200=\274\033\270>\335\300?>TQh>\033\370(>\311^\311<\300\322\"\275V\334\210\274\306\t\216=\2561\335\275\227\3639=\277\231t=\335I(\275 \020\335>\260\344\334>I^U>.\307\024\276\225)\333\276BF\215=8.\370>\3029\017\276\t\354\210>\235\000\205\274\220B\304\276s\307\225\274\343\000\253>yW\n\277\364=B>\323(\201<\231\005\253\276\313\320\217<J\213\277\275\345\352R>3\004\036\276\314\313\306>5\210\302>\346Ix>\355\005\304\273GH\'\276\313\277\273\275qY=>\225nb=\274\325\276>\201\276w\276\315\304%=;\354\003\276\020\222\203>^\305*>~D\316=&#\373=\276d\301>N\005/\276\356.\215\275,\275\341=f\347\000;\032\212h>{\032\275<@\322\266\275^u\203\273\'\233\037\276\310\323\211\275\223\017\315\276\361\363G\276\224\373\342=\025oY>^\204\242\276*.\307=\310\360\272;*\217\033\276\363L\311\276\177Q\340=\347\334\032>\312\034\217>\264|f\276\241\252\t>\267\354\003<\233\352R\276\221\274\023>W\210\300=\275W\373\2753\213-<9\247\000>\200\355\352<0\330\007>39&\276\366\361:\276\014\000\321\275\024r\255\274\202$\'=\377\257\316\275:]\230\274\302\326\257<\037\241\332\275%\366\t\276\215)p=\305\264\031=-#\324=\326Z\255=\261\034\311\274\332$\032=C\336\340\275;t\r>\240\222\336\275K\341\"\276\247\213Y\276|rM\275\177S\010\274[\177\216=\265\312(\2763\264\347\2746\014\371<#\005\t>\345j\031>\360Dl>5\037\246\274\370>c\275\322\274L\275\334\2741=\247\251u>\thN\276\336\323\317\275\370$ \273\005\346o\275\364\230t>~\026\350\274\001\253l=\332\245\236\274\3765\243\276_\235>>iP\244\274N~\033>T\177\013>\013\202\032>:\3374>\023\262\006>-\025\236\276\232{9\275o\307\240\276-\\\321\275\014E\334>\261\210\311\273\213\372\200\275\263\346\236\272:\357l\275 \027\337\275Mn\222>c\024V>\3248\223=%\274c\275\261\261\273=\200\250\t\275\370W\275=\321K\003\276=1\214>x4`=K\313\262\275\227\241\r\276\030\202\257>\257\033\361\275\023\215\262\276\033\202\360\270\313)\032>b6\230<<\233\327\275\206\327\202>\305\302\240\276\266\n\264\275,%\320>z\347Q>\010\020\327\274\325\032\376\275L,<\2761\ti=*\033\031\276\017x\\\276\312\361\355\274!\245\340\275\343\364\220\276\322\273\206\274\331\250+>\323D\206=\3068O\276r\343\252\275\252\326X<\300l\303=\215y\251\275\276\274\262>\357\030A>D\217\312<\312\341\200\275\323\313\031<\251\005L\275\317LI>>@\271\275\274\325]\275\326l\277\275\352\034\275=\340\220\210\275t\302\231=\336\232\005>N\215\242>U\017\241\274\250(\316=\353I5<\273\031+=\036P\347=^\337\'>\2556W\276\224\344\177>U.\207<i\300\273\276\211\020\301<\237~L>\264K\'\275\224l\212\275\256/,>c\267\005=1\":\276\356\255\025\275\036\'g\275\177,T>2(r\275}\342\010\274V\217\335\274\023_\004\276\342\357M\276\362\263\323\275\267\301\303\275L\022\"=\035\262\017=\2046\214\275\222B\365;&<\222\275\2262[>\217\263\363\2741xK>\240\271z=\312\254\310\275\217J\241\273h\226\243\275\246\204\343\275\212\251b\2763\014\323\274\221\213.\276\014\277X\2752\334\221\276\334\272\007>G_=>vK\354\27411<>f\225\326\273\006\331\036\276\031\021\n;[%\351\275M[Y>\341\2458=\020\233R<\247}z\276\004\303\325\274\271\255S>\221\033\031\275\355-]\273q\243[\275\335\234\323=/;\220\274\256\007/>\362tA<\340\002\026>;Mv\275\325`m>`\251\271<\343\203\352:\317_\023\275\305\001\006>\3246H\276\226}\025\276J\2562>\026\314X\274\227\306T=\201_D>\364\342Q>Y\\h\275D\201\337=\307\221\r\276\236\334\037=N\343F\275\253\317\205>`\303W=\021h\234<\202\326\216\276\343\377\315\275z\272\244\275M\n\031\276\373\377\205\276\356,O>\271\357*\275v\226S>\341nn\275\340\2403>\214\335\n\276\232\025\205\2769\254u\275\363e\360\275\315:\215\274\202\273\027\276u\037\346=\226;i\276Y\231\001=\211\373\031>\310\t\223>LIv\275\303\221\r>\t\204\017\276\354\246\201<i\006\203=\301]p;T\300t\276V\327\331=4R\267\275\360\245\202<\341ns\276eu\026\276\001\343\330=w\231_=\363\330\021\277s7>\276\271O`<-bf\274\306YB=\376?\276\274\262\222/>\025\013\026\276\230\264\235>\267\354\243\275\331<\347\275<\023\031>FP\321\275\230\tm\275\370\010M=A\244P=q7D\275>\002\341\275\302\t{\276\236S<>\361;7>m\355+>V\217\027\274 Pc\2767L#\276\000\217A\276\231{\372=N\205\330=&k\357\273#\022\201\276\324\373\016\275\330sq;9\344\327<uH\233>\343d1\276\236\374 \276`\212\035\2761\004\377=]]\214=\356v\214\275\002\313\346=\241Y\000?\352\036\243\276\350\235g\274j\227\037\275\316\271\025\275\313#\256=o\006\330\274j|l\275\035F<\276\030U!\276\336EM=\235\376p=r\256\231\276C\247[>\304\362\360\275\214\023\341\275\013\272\204\275\333\275\271\275\3277)\276\014\203\343;F\177\363\2745\217s\275xA\231=\014\'\024>\017\233\230>\235<\260;\350\337\000\275\"\t$\274\307\301\220\276\363\342\314<Q\376\226=t\210\004\276\030yU\274r5\006>\000@\316\274\037\263\206>e\337\002>\264\r\215=e\026\222\275\310\177`>1\376\261\276p=\n\276\325\345\373=\311\345\212=\243\227\236<3\240b=\372J?\2768\247n>\002\370\267>.\304S\275\275T\233;\263\321\246\275\301\013W\275\373/\036\275\252\035=\276\364\030a\275\331\313V>3\025\n>r\363\222\275\016p\010\274\r\033\223=\270`\017<\0278,\275\312\204,>\021\375\236<~\204\207\276\325\354$>w`\235\276\276\233\n\277r\235\034\276\026v`\274Z\246C>\226\013\302\275Gc\241>\327\213\251\276\373ln=W\361\232\276\nO\223>\316`\315<\\\0043\275p\203P=\330kT>s\256<=\362\207\031>\210b\366=\202\224\3539\352q\241=\356.\003\274X\327\177\276\246\260 \275^\226R\2741G\240\276\343\356T>i\222\357=v\372\333\275\300_\300\274\001\374\320\276;\014\234\275\301\324\301;\0315\301=}\202\307\275\360\007\323\275\026V+\275\231N\022\277\027\340]\276.\365\330\274\255\376\302=\374wl\275\261G\247\276T|\214=\370H\250=\3477\206>\354`\256<\217)\341\274\357B\r=#\377\206\276\275J\r>\311\316\272<\326\321I\276\321\257R<\003m.>\'o\203\275$\315S\276Xo\234\276\3643\220\276\r\212\251=\036\007X=\217<,\275\332\"\271=Z\377Y\275\327\305\r<\000\211 =\245\310\204=\312\205#\276\342\310\367<&\263\320\276\327\362\232\276\276\023;\276Z\242\331\275\007\031\227\275c)\205\276\320EG;\"\360\001=\215\351;>\365\227\t\276o\354\007=Y\245\032\275\347\"\020=\314\315i=\237\340\275=e ,>\341\255\253\275\032\022(\276\020\260\317=\215\350\232<0\017\037>.J\366\274\262\027Y\2759\262\314\275\277\207\237\275\202\264\247\276l\3615\274\305\264\034>\374\035z<\365/\344\275k!B\276i\3320>\343\337|=ux\275\275\267\203\364\274m\246\322=\230R\225=\220F\334\275\207\013\204>\246\350{>\253*\214\276\3370\245\275,\031\241\275\247O\247\275\321B\005>v\347\225\275@O(<j\006\035>\\\364\017=\244\226\025\276\327bv\276\376\232\035\276~\021\220=k\201\226\274T!\356=\030\330\361=[\301m<z_\327\275\333\336\240>9[\210\275AD\267\275ETm>{%\265=\234M;>\006\257\212=\371>A;7K\232\275R\000\006>\022(8\275b\216\020\276\367\030R\276\022$\360\274\266\211w\274\270\215\201>\001\r\276;\361j)>\n\256\237=\204\343\377>^b\352=S\017v\276\020g0=\222\205\212\276\201/\002\276\026\217\204=\352\177\260>\3058\017>N3*\275~\272\202\275\353\243\277\275\371\351$\275c4\310:Ad\361\274\250k\342\275\264\241P>\031gv\2768\367\370\275\r\'@=\177\326B\276\311\216_\276\215\217\014? \333\030>{\354\034\274\320\n\237\274\204;\222\276h\272A=\306o5=4\351Y=\2676\272\275\227J\321<3\252\002\277\320\021\214\276\322\264E>\3462\256\275\214L\r\276Q\367\331\275\245r\242<\223\272c\276\n\251c\276\014\357\222\276\372pw\275?hM\276\n\366<>\270\304\224>u\244\375\274\025\360\216\276"
      }
    }
  }
}
node {
  name: "b8"
  op: "Const"
  attr {
    key: "dtype"
    value {
      type: DT_FLOAT
    }
  }
  attr {
    key: "value"
    value {
      tensor {
        dtype: DT_FLOAT
        tensor_shape {
          dim {
            size: 1
          }
        }
        float_val: 0.31167313
      }
    }
  }
}
node {
  name: "b7"
  op: "Const"
  attr {
    key: "dtype"
    value {
      type: DT_FLOAT
    }
  }
  attr {
    key: "value"
    value {
      tensor {
        dtype: DT_FLOAT
        tensor_shape {
          dim {
            size: 56
          }
        }
        tensor_content: "\216\344h>\246\353Z<\201\246\353\275\375g\366\273\016\256\276\276lC\253\274\214\201\333=\266\001P<\330\304\273\276\343&\273\276\203\031\226<GL\013>Q\371\006\274:\346 >\337\311\270\276\352N\016\277\317\325\313>\275\275Y<v\331J>\325\013\260\276\025\310R\275H\3226\276q\377T=\371\225\357=tX)=\'\207\347<L%\032<\322\367\236>\365\223\202\276\355\207\217\275\013\312\230\275\221\033\214\276)\336\343<e\017i\275\331\341&\275\256\311i>\256P\001\276\226\247\006\276)\344\226=\030\263\234>\262kc>\032\304\204>^]\221\276=\273;=\367^\340\276\350\203\204>\215\270n>\213\037\245>\314N\205\274QL\337\275\301\376\244>\322\006_<\350\370\253\276>\211|=\"U\346\274\r\275-\276"
      }
    }
  }
}
node {
  name: "b2"
  op: "Const"
  attr {
    key: "dtype"
    value {
      type: DT_FLOAT
    }
  }
  attr {
    key: "value"
    value {
      tensor {
        dtype: DT_FLOAT
        tensor_shape {
          dim {
            size: 12
          }
        }
        tensor_content: "bL9\275k\351\271\275\224\263\265>\303\237\232\276\223\256\022\275\366\227N>VM\023\2765\344w\276Q\304>=\326uX\276\333y\"\276\223\354\022\276"
      }
    }
  }
}
node {
  name: "b1"
  op: "Const"
  attr {
    key: "dtype"
    value {
      type: DT_FLOAT
    }
  }
  attr {
    key: "value"
    value {
      tensor {
        dtype: DT_FLOAT
        tensor_shape {
          dim {
            size: 56
          }
        }
        tensor_content: "\312\365\277>\0008e\276\335\211\236\276as@\276d\230\302>\276\273\206\276\2109\257<\350~?>\323\301\276>\343\340+\275\276L\206\273M<\212\276\0333j>\317\312\353\276\3424\215>\345\243\336\276\003N\017\276W\'\331\275\034[\201>\021p\210\276\365Ki\276;&\237\275e3\260\276\333(\202>\027\214\267\275T\013\246\276\032\336a>\"J\020\276\035P\013>=\217\325\276u.\244\276\253F\335\2750ao>\3455\027\276\006*\321\274t\336(\276\207u\237\276\007)\313>\263\320\373\276d\331\020\276\214\226\235\276\324^\221\276\313\t\213\276\334u\033\276\337\254\305\274m\254w>\'\203\274\276;\327F\273\350\332\263\276\2547\337>\2334\261\276\300\225\320\276\"\304\323\276T\246r\276\227\343\227\276yR\353>"
      }
    }
  }
}
node {
  name: "f8"
  op: "Const"
  attr {
    key: "dtype"
    value {
      type: DT_FLOAT
    }
  }
  attr {
    key: "value"
    value {
      tensor {
        dtype: DT_FLOAT
        tensor_shape {
          dim {
            size: 1
          }
          dim {
            size: 1
          }
          dim {
            size: 56
          }
          dim {
            size: 16
          }
        }
        tensor_content: "\300S.>X\271c>\221e\014>A\200\014>\204\016F>QgL>7\230\\>\253gr>D\3274>,|\016>\\\006\020>+\032S>\226\314\033>9\034\014>\002\001\027>\306<G>\222\311*=\240\205\030>\204\2070\276y>\215\275n\341\303\274\315\030s\275\222\244\323;\365\3362\274\266\322\344=\322\274\007\275\203_\273;\237\356\344\273DZ\364<\006\323\330\274u\201\216=\305j\303=\267\027\335=\324\256\361<q\014\033\276\372\206d\276\371\025\t>\225L < \361P\276E<m\276\274\267,>%\014\325=\271\315\342\275\026m&\276j5h>\222\344\325=\\d\271\274\027F\356\275\200\010\353=\206\'\322;X\232p\275y\327\020\275\245\242\233=\210\333\254\273,\224\242\275\321\333\346\275F#\262=T[\"\273\221\301\210\2751\334\001\276:\375\026>\353\321w=\356\336\010<\217\037\"\2755\343\277>\205\375\247=\255\332\234\275m.\021\275\304\337\333>=&\220=\363\272\323\2754\330\314;\255#\357>\236\314\273=\364\2670\276\341\345\033\275\352\272\317>\000\330\260=\220\321y\276g\320\325\275\275\276\310=\365\214`\276S/w<L\344\232=\352<\324<\002GX<,\373\200<\320\251\210\275\022\256$>N\341P=\272\035x>\024\276\003=\353\230\266\275\317\203)\275\331\221\014\274\330\367\316\275\003\322R>[\247\'>y\261\316=\032b\227=\330\257\032\274^\304\\\273\006\376\025\275\260C \275\360C#=\243\367v\275X\223I\275\304\337\315\275\366\326\236=\021)\326=\007^\036\274\351\271g\275@\313.>K\200\243=.s=\276\361\321:\276\t\353a>\306\326(>\301\234\003\276\234\370)\276\246\377_>>\317\036>\271\250-\276\327\231>\2768\334\022>\361\007\232<\016\316\212\276\243\315~\276x\235P>u\352\210\275\274\277\314\275\tpE>\377\222Z>\345\275>\275\033\251\216\275\311\233F>\014\274=>\362\377\226\275l\017\301\275Oz7>\207\252;>\207\275\312\275\275\373\326\275!\317:>\215\\\201\276\372\363\266\275\244\313z=\177\0204>\037tk\276$F\017\275\270\013\214=\235\355M>\014\303]\276\300\"\266\275\232\032~=\034G8>Fd\201\276\260\nG\275\317\240\214=k2\016>\2554]\276\374\007U\276\200\202\003\276Ll\022\276\270\002\235\275\263\257\225\275,\365_\275+x,\275D\246\231<8$\037=|\245\024=\nV==\005\336N>,\'_>u*N>\312\252H>\335\372\247\275\244F\004>/A[=W\241\235\275\271\017A=\'\353\324=5@\356=T\227\342\274\270\205\003=\3372\243=\033\203\363=b\205A<D\320\366\273\177\275\301=\206\340\231=\023a\023=\2264\232\275\207-\322=\340\377\003<\002\\s\276\3366\357\275\216\036\360=l\335\315;W\036d\276^\265\005\276\255w\324=O:?<\217\355]\276q<\014\276\312\201\210=\026p\227<\357\032z\276\336H\363=8\331u={\221`=\200\230\363=\t\3671==\010F\275lO\225\275\005\010.=\365~\261=\364i\347\275N\247\204\275\330\016\224=\\\201\020>\221\3614=\010\303{=\025l_>\351\304\252>zW;>\320$[\2766{\346\276\272\027\216>\316\350e>\260\313\003\276\377\347\333\276\306\262\206>\360\326\036>\230s\006\276A\315\342\276\324A\223>1\3458>8[\357\275\351o\324\276%\031S\275\234\0212>\275\321\334<H\343\257>\"\357\004\275\217Tj>\322\350H<\242\205\262>\022\357\235<KYk>\231D\036=\336\234\245>r)\201\275\007c<>*\032\264\274\t\362h>\372\304\036>\355\r\034>&\365\r>\340\341\006>\212\341\013>\\\360\t>y\372\025>\331|\001>\023x\r>\344\205\016>o\212\006>\350w\366=X\245\023>\213\033\377=\2060\035>m\'%>\211h\023=\333&\031=t\343a\274\231\210\213\275T\205\365<\220B\'<@!k=\240x3<\272\302L\274\331Rc=\036B\332<\267\241\206<\357\031\224\274\210\211\366\275\370z\372;V\253\251<D\313\252=m\362\200\275\274\314\014>Y\265X=\025\025\234<Z\342@=\251\346\306=\363\313o\275h\343\201=dE\016>\333E\213>\337A;=\241\366\177=\324\346\352=\r\216@>\2319\026><0\237=\2635\214\275\312\026&=\351\366\306=\244\315H=\004x\316\275\305\361\301\274\037\352+=\364hO=\232\254.\275\355f\003<l\275\261=\200(\200=\367\216\334\2750\322\243;\350\002\225=\343A\211\271\206\212\243\275\027xo>\251\rr=(\332G\275K*h\275\246>\313=\263\357\315=(sX\275\013*\275\275\263O\246\275\014\351\276<\013P\232=+o\027;\006\t\032\276\357\244\351<\316\3719>\325R\215>G\372\236>\355\312\232>A\020{\275\340\362\310\273\210\276\200\275*D6\2757\002{\276K\3466\276\361\261b\276I-Z\276?\246\270\275\304\345O\27587\202\275[\360t\2756\024?>\376\256k>_\036\263\276s>\223\276\354\377\370=:\374\200>\316\277\257\276=e\224\276\346C\371=\n\342\211>H\245\207\276\365\240\204\276B4\375=W\020\243>\224\356R\276l\342\204\27630(=\253\033\r<\346\333\232\275\205,\235=\265 \313=\2111\330\274\334K\230\274\223\304\003>(\200\324=v\307\267<\277\r\324<r\036,>\320k\226=\230\330\001=\246]Y=F\265\037>\002\022\242\276>\322\241\276KJU>s\3172>&\000\215\276\367\"\251\276\352T\201>\235C\017>\222l\204\276D\014\223\2765\255\222>\'\334\034>\010\014\231\276\031\343\242\276\202\343\213>q\331!>\352?\305\274\343\037v\275\024K\357\275\360T^\276+a\265=\350H\236\274rx\326\274\037\200\010\276CS\327=\205\370\220<\333\345\267<\025m\370\275\241\3225=g\230\237=0\212i=\222\215I\275\235\246V<\245c\242=\'\232\311=5\3748\274\274K\200=\215+\016>\347y\377=\343\030\365<>W\240:T\315\022=l\343\267<i\233\031\2751\262,\276\262\300\036\276\024\367I\276\034Io\276C}\000>}\024\352=\352=C>\301\257\277=\033\032\361=\330\317;>\264gM>p\265$>\232)\323=\357\217\343=\372\332y>3K?>\247\032\320=\216na>_q$>\017\245\314=K\275\007\276\341\202\262\274\241jD=P\'\205\275\364\000J\276Tv\220\275@8,\275/\371\014\276TJD\275\327\207H=\361*\227=$Q*\274\210\317\255=1@\037>b*K>\277u*>\360\014\004\276}]L=B\007\306\275\306,\000>wP]<\245]\003>[\254\200\275&\027!>R\026\022\275\335\377\316\273\303\316O\276!I\207<\026\251@\274\025#\256=\231b\'\276\346b\271\274\373F\265\275\016\034\252<\227\225\246\275\355\024P\274mA\006\2765,\315\274e\026\237\275\263T\230\275\264^\242\275\323\327f\273LG/\275\277\001\270\275\326L\215\275\374\217\030\274w\322T\275\035\r\227\275\333i\007=\025\373\327=nk\241\275+\232\214<R\315\356<\307\342\225=\323*\321\275;J\261\274\247\305X<\316\034\371=M\224\260\275\250\351\215<\235\364\352<\347,\336=\247o\311\275\375\262==\177*\236\276\252\371\342\275\"]B>\341Vs=\004\002\213\276\301$C\276!/\022>6\325i=\355\307\270\275\301\030\274\275\004\334\206>C6Y>\350\327\013\276\r\305\343\275\030^)>\316\355\031>\200\354@=\375\303I\276\375T\232\275\217?\'=\024\372~>\245_F\275\271{\253<\301N\206>\001\352\227>\277\0108\275\253\341;=\023\317\217>\356\373\034>\016)\007\276\005\235E\275B.\350=\370\007\201>\034_\226>KD\237>\272x\225>vK\256\2756_\234\275\317\232y\275zB\224\275\313\366\375\275\225\270\241\275z(\305\275n\324\261\275]\004\003>\3206\023>\255X\027>DN\022>]t\003>\352:\226<\332 \007=\370\005\224\273$Lw>r\370\274=\244\'M<2\017\274\274\025\341{=\227\217\r>\014\327\326=\221\343\361=+\214\357=\264lg>6(H>\220\312\023>\222\354\253=1`\227=Y$}\275V\316\221\274\006gv<\240c\235=i\352\361\275\210\221\274\275-\000\036<\017\354\353=\024\352\022\275\272b4\275\017\025\331\275^\021\237=%\022\346\273\364\014\037;QW\367<\001\341.\275\347_\257\275B\342\223\275y\361\n>\177\213\213=\277\251\353=>! >\026\024:\2754\247+\276\026\357\202\275Ug\377;f\036\030\275\366\3055\276\362^\327\275\304qX\275\333\301k\272\214\203\210\275\030\261\212\275\211\336\322\275k\320\334=\267\246\341=\024|\020\275\376\370\371\273\342\214\324=\'\345\325=\220P\2414\331\337X=\342LL>U|\261=\310\373H\2758\nc\275\006\213\217>\003\014\211>\214\342x>\257q(>cic>\370\031\004>\333a^>4\233\021>\332b >\230x\355=b\2140>_\366\301=MC!>\273\273\313<e\303\277=E\236\'>\344\215\262=\276O >z\314V=L\362\240=\271\317h=W\345+>\232\005Q=\002\251;=\"z\005>l=)>K\235\222\273\363\362\356;\005\330\021>\311\031\010>\310\014\370=y\256^=\271\340\017>\274n\375=M\201\372=fB\241>~\026\022>~\032<>q\354\367=X>n>ub[=\274t+=\276\363\211=\013\2144>\0271\341\273\246\032\225=n\300\314=%#\276=R\352\342=%\020\024\275\272\353\273\275\311I<>\214\272\234\274\314t\315\275\220\251\321\275[u\036>yF\323\275\361\210\010\276\205\231,\276!\036\234=\371}\213=$<\036\275t\223\226\275\250\345%>\254\310\217\276\220\352Y\275\3540h=x`*>\001\030\234\276\353\230\276\275|\240\363\273\213{\024>\'\223\225\276\242\227Q\275\005[0:\301\326\005>\341\353_\276\303Wn\274`\340\270=\231. >\034\211\227\2763\315\213\276\344{q>\276\370\267>\177\001\224\276\007\031\217\276\263\301\214>\313\325\300>\\e\254\276t\227V\276$en>%\201\305>\351*\230\2767\240\200\276\355\323->1\254\305>?%\357<\300\262\340\272\312 \356=%>t>$\n\t=6\365\340=\373\362k=\215>?>\365+\330=\305l\354=T\346\271=\274\303\345=\000af>-\364\n>T4\370=\334\374~=g\005\322\274cfo\275\266\264\200=\2310\322=v\334\177\275 6\234\274\004\360<>OPU>\244N!=\337\200\201=W\035^>\030\315q>(\245$\275\030\375H= R5>\235\342y>\371\006K>\253\316e>\234\r\367=\373\3560>\324\201B>My1>h\306\027>i`J>%?\225>(sm>\235\216\317={\3660>\303\006t>\030\230\036>\014\353\234=p\371\366=V\013[>\325\324b>X\'N>\034\2131>\351f\037\272\034q\221<\206\230\267\274*}\"\275\031\316\374\275\271\006\303\275\315\233\r\276?\206C\276\205\351R\276t8/\276N\213e\276#;\224\276\311\353\211\275v}F\276?\211\017\276\375\027\211\275)\256_>\275\356\315=\'\024\230=o\343?>\014\236\205>mc\200>\255}I>\201*\205>$\316\201\276\265$\234\276\267l\213\276;\356G\276w}\375=\314\\\203>\264\356w>8Q\362=\001%Z>}\307n>\247M_>\t\252\016>\020\357;>\014\223\240>.#\\>\r\000$>\326\332K>q\300q>\220.H>\2176\354=\026\220\037\272\270\337\270;\'\327\312;0\272\352<\221\006\244\271\226\323m;\355\276K=\276\346\271=f\346\026\276M\2168\276\216H\206\275\360\021\245<\022l\027\276Yee\276\351F\262\275g\216O=\200\200\212\276~\270\217\276z\216b\276\354t\232\276%=n\276\243\n\231\276\032\242@\276\035p\202\276\265\322\'\276#\354g\276\343\2200\276j\342\\\276\274,\303\276\345\356\266\276y\346\251\276$J\275\276\033Ij=\214\273\337\274\005\300a=c5\244=C\r\032<\007\247\341\275V7N<^m/=\334\256?\275\224-F\275\235\2311\275\266W#=/\003Y=r\200 \275\305\n\204<\356\021\355=\034\014\367\274\034^\314=\201\302/=W\232\210=\n(\300\275\211Sl\273EQ\257\275\325\201U\275\226\206\013\276\331\372\262\274\307)\327\275+\211\224\275{_X=;v9>\310\352q=\'\372O\275\341u7>h\374\350\275s\310T>\336\272\n\276\250K0>\225\366q\276%_\027>\037\320E\276<\206\026>\214\005d\276\006\302\306=\336\3316\276\036Q\213>\352\317\263\2755\362#>\335\3114\276"
      }
    }
  }
}
node {
  name: "f7"
  op: "Const"
  attr {
    key: "dtype"
    value {
      type: DT_FLOAT
    }
  }
  attr {
    key: "value"
    value {
      tensor {
        dtype: DT_FLOAT
        tensor_shape {
          dim {
            size: 1
          }
          dim {
            size: 1
          }
          dim {
            size: 12
          }
          dim {
            size: 56
          }
        }
        tensor_content: "/\321\204\276\365\2774;N\265H\276\257Z[=\"\323\"\276\354z\264\276\261\334\027>F6\227<\316\220\225>Q\351\232\275in\032>\r\255|\274\355\200\214\276Tn\355=\332=\005>\305Z\202>h\276\326\275\236\344\033:J\017\274<\241\326\331<\260\266\034\276\256G\257\275z\t;\276\3432\201>\367\321\001\276H\206a=M\236\366=\257ge<\3213)=U\3118=\265)\313=\354\2739=\275\303^\276R\005e>\005:\270>\277L\237=\242\240A\275\357\232\266\275\310\006\234\275t\000\201;\323I\234<A\021\330\275\375\347\t\276\243\233\001>\226\036;\272\r\301\326=\215/\240\274\033\376\313<z\265\245\273\3140\317\275\321d\257\276\236\014g\276\224\323\202\276\300f\343\274\021\327\253<\203\005 >?\310\241<\304\200\355\275\237y\234<\211\355\217\276\r\365\032<k\251\252\274iL\016\276\301\021\217\276X\242+>+\217\211>]v\023\277|\005C\276\213\374\304\276\260b!<\305\220;=U\222}\275\234I\025=z}9\276~\321\327\275\337\251\374=2o\243\276\303*\230=$N\330\276\014\374/\2761\262\212\276 <\336\276\331\342\305<\371\3749:\337\001#\276\330N\364\276\024\030\002\277\340\252\027\275\315id\276\250\277\036\275\365\256\022\277v\273\337=\245\222\303=\352\253\362\275\334&g\276J\3267>\315\221\300\274?X\207\275\005X*\276\2072\213\276\214vJ\275\210\353\r=o\203g<\3323\377=\215k\262\276\241\\\270\276f< \276\326\016\264\276\312\t\037;B\326~\276\001\311l=^\345C\276\243\345]\275\334.P\275B\360\361\276\340:\221>`\366\341\276\325X\235;\212/\213>\t1\351>\033\366\265\274/\t\266>]x\247\275\272\252\023=\227p\000>\240!\335\275\262\361\206\275\t\"/\276\370\215u<\371h\266=\2229\202\274\334\217&>\371U#<\016\307\236\276\316\376\311>\207\314\025\275\242\020\036\276N\244\216>\021\337!\276\014(b;\374!\361=\\/\236\276?\217\231>\374\227\007\276\377;L\276\362\226\325=0\334\206\275Q\351\017>\242qR\276(\220q\274\347\036,>\313\031\276=L[/>\035c\031\276\031\330q\275\205P\327\276\270\237\323>\277\361\325\275\322\214M\276\270\031\337=*\323\021=\007\366\030\276<\272\313\275\365\017==\327\017\214\275\037\205\236\275MQU\276\301-\003>\021\220\016=$\361E\276\022\t8=\023\026\024\276\014\232\033\276\201\372\013=\340k\022\276a\312R\276\217\001&\275\010\332\005>\342\376\034\277\225\215\033\276\260\375a\276\262\0308\276\230\2312\276\355\313D\275F1\247=\222\350\201\275\0046\266\274\270p\303=\275K1\275f\t\314\276\3403\006\277j\231j\275A\336>\277\271\227m\276w\244\257\276=\214\003>\372\310W=\227\351\224\276\344\276F=\313\336\037\275\1774\347\276\260\024F\276B\2215;\226;\004\276\205?e\274\317c-\276\226\255\221\275\251\371\212=\211\245\245\275Y\240>>:\327c=\031\276\302\276\202Nv\276y\2303\276E\354\027\276\225\315e>\236\254)>\307\247\232>E<\275\274\233\211[=\316xt>\317z3\276\265i\276\2756\334\221\275\374nV;\'+\007\275\001%\246\275\036\230!>%\332\254\276\347N3>\3343\345;\004 \213\275\035\020\004>\224\275\004\274\370\240\221\276\360D\344\274\240\317\247>r4\222\275 \014d\276\230\361\244<.\234\351<\014\362\373=\370.\375\275Q\022\227\272R\342\203\275H\375]>\235\301(\276\357\274~=\260\237\265\276\360\\t>0$\'\275-~\300=\022(\243=\230Y\362\273\211\340\345=\3352\'>\033\224\277=\306\201\356\276\234_\357\273\236\274\347\274\232\227\010>Q@\000\276\372\213\232=\301\236\346\273\237=\277\275\363\013\371<J6\342=$\024\223\274}\222\227\276\217\211\236\274\370\350\004=[\004A\274\237\230}\276\022\303\375=\375#\014>\3265\327\275\347\247\005>\260\250r\275\374\366\007<c\356\205>\357\274M>w\343y\275\017\264.\276\233\025\361=\323\220\323=\017\271m=\330\207a=\225\225\344\276o|\235\276\3610\322\275ui\031\275\363v\203>\342R\345>`=,\276\373\264\323\274\221\230%\2758\213\006>\247\356\321=G\327+>f\274\206>%\252\222\276M\2552\276\353\327\230\2768\rN\276\253S\305\276\"\304\017>6\320:\276j\023\305=\013\2228\276@\365\231=H\331&>\372\230\005=\242\305\341\275\310B\022\277$<\303\275w\357o\275\330\004\233=k\307\245=\025&\020\272\363\033\006\276\320i\006>\016\273\216\275A\374u>O\231M>\t\201C<\342Zg\275K\323^\273\030\263\321\275\326`$\276\026\375\357=\270\233\317=]\261\000=\3117^>8\337\"\276d\313\316=;\026l>\306\363\247=V0\301=\235\276A>\330x\207<\217\207\264=\301\345&=\2337\341=\263O_\276\235.\222\276~)\016<\325\036\022>P\352\222={\020\005\276psI<u\334\376\275\010\236\221\276)\027\240\275\t\310A\274\325R\231=\202\'F\273\0354\017\276\r\307\221\276\025\360\237\276\n\324\\\276\030%\232\275\306|\005=|\236\324=\363\3642\275\353\245\254\275:8\315=Z\335\344\275\314\326Z\276\'\215\222\276\334=\262\276\211b\227>\032\001t=\27599\276zi\370\274\212Z\343:E\207\005<\251\273K=\270\3057=o\022\314\274\022\312\205\276?\211;\276~\263p=0#\216=~\301u\273\031\374\231\275S\242\307\276\276\030\346<\036\325\346\276\274S\233<q&b=\262\353\017;\353k\003\276E\022\231\275\253\t\334\275\030\302\212>/z.\276\032}\201>\023\177\212\276\233\302\344\275\323\213\013\27643z>>\206D\276\375fk\275\330&\246<\033\275O\275\006g\233\275\016\244\255>\320M\374=\370\233H=\343\341\256=2\360\266=t\322\245=\354\207\200>\004\017\323\273ZmW=\315@\003=\373\237\246>O\033\322\276\272\216\352=\361\216\206=\022%\367<\351\312u=\306\300\311=\2677R>\233\210\254>\326\266\353<\273f\010\276H\300\014\276\006e\027>\"\273\252\276\325\277\022\275\343<\260=?\210\221\275w\264\223>\t\267R=\307\351\335>6\333\031=\240\340\325\274\304\326?>9N\n\276F\323\303\275s\027\376\275\274\n\312\275l\234\252>\201\234T\275\240i<>\234\301E<\372>\300\276Y\2459>\340Q\263=\251I\330=\340qj\275a\311\225\275\203\251\263\274,\020\316;d\025$\276U\014\210:\212\227\004>\261{H>\024\331\002={_e\275\214\255)>\227\007\251=*\271~\275\024\253\305=\254\211\220\275s\355W>\020\367\370\275@\236\317\275\255\230\300=XM\374\275\350.\323=\014\325\342\275ix$\275\300\207T>RJ1>.\332\342\275\324\1778>@d\221=^\265\003>\3341\r\276\3144\351\274\013\273\025\276\206\331#>\003\207\357=Ot\\>%&e\275\037=\317=\316y\017>i\2510\274\342\364\013\275\241\035\302\275\204\3522\276\005$4>\203C\246=\260\365!>\233_\320\276i\370\255\275\022N\022>\014s\242\276F.\323>\tX\240=`-\317=\235\276B>=i\237\276F\234\212\274X\316\210\276\315%\230\275o\314\026\275K\244\250\275\207>\365\275^\240N\276\334\\\316<\300\001\017\275PB\216\275\345\274\243\275\032d\300\275JuY\275.]\010\276$\207\025=\254Ez\275\254\311\003\276\227\260\211\275\221\344\177\275\371\325#\276\375\225\376\273\265L\221\276\210\315\212\275\2013`\276\365\273@\275(-Y\276\330\201k\275\261\3060\275\353d\365\274J@\376\275\227X\304=\362&]\276D\352\014\276\343\353:\276\376\350d\275\031z\313\275\226\327\321\273\236M\324\275\211\253\000\276sq\037\275\026\362\"\276\304\034F<\266\306\026\276\023t\366\275t\212\345\275YG\360\275y]\266\275S\215\302\276\216\201\265\275cEC\2768W\242\276\251\375+>\266\327\237\274\315\353}<\333\341\316=7\177\254=S\331\304<\243\334\222=&\370a=O.\220\275\216\327t=\267\235\350\275\031\033\262\275\034\255\234\275\021,\025>Z&\241\276\324\224\270\275\345\353z\276\200\205;=R\260\355=Y\213\000>Y\370\224=\332\223<\275\3666\360<\037c\345=\364{\244\276&.\231=\311q\241\276\010`\027=\t\r\262\276\232\3711\276Mg\277=m\373\031=}\246f>K\ty\275\021Ki\274\342\177\315<\276\255\254\276\275\247Q\276x\014M\275\033R\221\274\264|\373\275\000\034\256<NA\216\275]\372\244\275\244i\022\276\206\306\372\274#\014,>a\313\332\275\312\345\032=\274\t\030=\265\233\211\273n\250\303<\005\023\236\276\304\340z\276\024\211\036>#E\271\276\222@\227=\345\023\007\276\320\324\000\273\\b\230\276\253\214\317\270\244J\007>r\202\357\274\217\372\027=\317a\337\276\265\265\245\275\272\026\"\276g\222Z\275\343\230\237=\r\375\275\275I\340\240>)\345\220=N6a\276b\307\207\275\327B\245\275\257\013V\2765\364\367:^p<\275\226\014\200>\325{t\274\035%T\276-\2463>\223d\001\275Dy\235>\354@B\275\004h\035>?\203\t>\374\"\243<\306\255\003\275jS\"=)\025\371<?\207U\275\212\202\211\276\233\226Z\276\213\003\002\2778\254e=\327\240\340\275H\356i>P\017\201>\031\313}\2760\342\201=\003\027\277\275\361\357\347=H\260\034=Hr\002\276C\307A=\272\0035>\223$\'>\261\016/\277dC\031>\255\255\212;\371\360O\276*\333\360=\203\266\024\276\245\033\030\276\022\377\235\275"
      }
    }
  }
}
node {
  name: "f2"
  op: "Const"
  attr {
    key: "dtype"
    value {
      type: DT_FLOAT
    }
  }
  attr {
    key: "value"
    value {
      tensor {
        dtype: DT_FLOAT
        tensor_shape {
          dim {
            size: 1
          }
          dim {
            size: 1
          }
          dim {
            size: 56
          }
          dim {
            size: 12
          }
        }
        tensor_content: "\302,@\276\233\005\305\275\027\346\031>\224N%\274j\0257>;2\264>_=\270>n\240Y\274\300V$\276\235\320\267>\035P\000\276\3128R<\203\261\001=\256\3349=\310\263\326\273Rv\252\273\030\243\013\274\n\2559\274\267\366\007>\356yu<\231$\357\2741\2726<\221#\244=fl\034\274\242\370\263=\300\226\366\274\313\275A\275{\312\232\274\315\006f\2751\203/<i\341B\275<Ra=\275\251Q>\250\306N\275\274\260\003\276\305\321\014>7\310\204<\345\003n\273R`\206\274\004\375]\274\370v\021\275tW\002\275\272\321\020>}\230\277\274\373\336\271\27544\370\275\024Y\t=Y!f\273?h\237=~>\210\276\001\010h>\2156\001\276\211H\305=\nQ\275=P\035\251>^\266\t\276_\032\271\276\262 \267>\330\335\315<\014\230\242\275\303\347\t\271\364\242\026=\225$9\273\025\032\\\272h\206\004\274\350\025y:\234\276\276\275\357n\266\273\256a\276\275\255o:\272\231\204@<Z\210F=\0176[>V\210\351\275\343q\354;\211N1<\240Y4\276\351\336\214\275m9]\276\005\344_>\236s\234\276D\277\301\274| )\276\224\277\343\275\345$\233\276\037A\343\276@h\307=\035\016\350\273Z\'%>\265\257\252\275\202\235\245\276x\014 =\304\373\223;\037\177\322\273\355t\253>8*\262=\317\361\300=\030x\253>+|\207=\333\231^\275\001%\351\274:W\021>\232\001\000>\301\250K>\241\036\262<\225\352\214>\224\252\020\276\231U\203>\372?/\273\204\372:\274\250:\347:\337\332K<2l \275\244\214\261<\022\342\023=#\3656\275\322N\262=5\300\005>}\266{\274\020\027\032\275\344\230\021>cn\275=\321?\\\274\375\231%\274\213?\212\275Xy\004\275X\360@\275\374\206\027;\"w\211\276\344\236\350\276`\367o\274 \265\305=\263d\226\274[\024|=\341l\"=(8\013=\314\003\273\274\266\027\333<\001W\205=\331h\341=\0220\232= \221\005\275e\327\014\272\203\361p\275\331\214\262<\275\004\202<\275t?= Z\366;Z\247!>]e\272=n\243\264>\2600\277<k\017L>\204\006D<\201\016\201\276\nc\376;\020\034k>F\2634\275kX\257\275\215\3506;\362\375\264\2743F\202<\374\352<>\356\227\360<\272\370m=\216T\251>\325d.<\346\302\"\276BK\274\274g\354J=X\260\371<\030\232\213\273<\274z>\316\363\201=\007\244\342>[\242\256\274\tPH\275E\2452?\021\000b\276\002O{=\236\210\013>\376\214\273<\241P\341\275u57=%\235\235\276\024[\256\275\304\006h\2751\016\027=<\233\246\274\232 *>G\333F\276\335\341\022\273\2103\227\274\362],=BT\220\270\314\321\371\273\352\274\273\274\323\341\332\274f\277\353=\027\341\315=\007V\010\275I\224\254\274\362\336\245\273\320{\233\274#\013\206\274\363\351\007\276\231\t(=\337%C=\352\313\220\274\305\245\223\274\214\002\330=\235\003\231\274\215\373\220\276>\005\332=\251\321\021>\207\210\026\276\343\2430\276\277\341\030=D[F=\262\225,<W;\236>\334H\313=\r4\356>\366\346Z\274\361x&>\330\023\001?\200\263\367\275\370o\327\274\306gn\275l\352d=\034=r\275\316\002\362\274\236,\'\275\035\322,\274&%\320\275\210\354\t\2760\177\301=\234B\233\276k\250\006\276Qc<\275S\352(=T\032\367:\312\006\004=\035\316\320<\031K\224\275\r\346\271<s\341\247=*\320\004>\235\213\021\274\234\021\243\275\017\037\022=\302\177Q=P\250#\275f\220\"\275W\330R<r\177-<\014\342\026<\355C\223\273\372\312\251\275\364n\250\274\372\032\344=\226\005\323=\374*\022\276\350\201\346\274\226\0375\275\037\231J\274\337\177\220\274*jR\274\270c\331\274\320\3202\274\350\3175\275\203\256 \276\277\377\211=\325\345\246\274\350\205\'\276\307\223\003\275>\255\002>v\025c\275)\306\016=i\256\253\274\305V\357\274g\n+=\037a\026\274\211\310\027>p\231\346=\257\202\035=\342\277&>3\010\245>\236\332*=\371w\024=T\201m\274D\000\r\275Ns\311=\375\330a\275\260Hv=\2101r>z\273\030\276\217\307\302<\303%\010>\276\240\037\275\013W\355=\310D\365<+\335\255\2754(b=\351+O\275lp\021>\221\256\261;\323\035\n\275\251\271\021\276s\360\251<O\234\206\275\350\"\367\2757\205\376\274\374\002\360\275Ks\004>\357\343\221=e\2225>~\021l>H\005V=\331\\\t\275\260x\233>\363\277\024\276\343<\247\275\305k2>\367\341\353\274l4\313<\364J\022=<\221\"=\007\226/\275\331A\030=t\306E\275\205\216\n>u\347\024>\026\225\023\276\232\262%>\2634\221\2758\315&\277D&\244\275\027\345\316=G\312\330=\007tw\275\267\226\274=\342\327P>\313\202\275\275\304\273\210>\221\354\353<L\036\322>\242n\214\276\313\001\023>\"U\220\275\2036\363\275\220\030\313\272wz}\275\360Fi\275g\004\271\275\271\251\232=\235Q7=\277\241\242<Q\220\003\275\220\310%>\343U[<%\\(>\0106\221<yl\215<\030\363\254\275\362ai\275\361\0359>\323\324\020>\336\311b\276\004\007\375=@X\267;\030\353\351\275A\246f\276e\233[;\304\332U\2749\303m=\226}\345<\231v\217=1\307\365\275@l\271\276\213\263\220\276d*\202\275b\323\006>~:\372=\367a\337<\023,l\275/\313\004=\361\260\021=!\014\276<\220x\340=\032\357\306=\301\"i\275\222\224z=\374C\262>\030\334\262:\336{-\274{\302\260\275\344\361\311<q`\031\274[\300Y\274Q\010\013<d\250\261\274\350L\203\275\213rz=\2662\t>[\327\351\275\357\036m\275\212\223\022=\220\373\025\274\261L\007\274\212\"\025\275=D\212\274\327\355\271\274\376\020\260\273\350@*\276\031\355\352\275i\202\217\273\360\177X\275\237\001\250<\022>\026=\357\n\r\274\272_\'\275\277\001\310<@\274\206<\220!\377\271\256n\250;\007}\203=\255}\221\275ZT\324=s\243\226\275\222i\361\274\204Nj=\276\013Q\276\353{\206=d/\021\275\320j\213\274\256D\227\2756\272 \274.\033[\274\206d7=\300\320(>\361\241\326\275f\304\352\275\206Z3\274\263\374\024;\3335\264=\020-\222>\330F\227\274\362a\277=\221\256\246>\251\245Z>\314HD\276)Ua\276\205TW>\211(\206\274\360\2656\275\256\375\017\274\014\315\266\275\270\321G9\361\224\344=\035JQ:\367\0315>\023Y5=\314\026/\276\241\311\221>\362\3710\275/\\\360;k\262\372\274k\332\353\275\362\267\212=\326\315\340;\203so<+\215%\275\303\254\014=\327\325\032>L\0352\274\354\336E<:\323x\275\377\262\256=c\316\002\276\316\342\253=\222\2768>K\206\006\275.\267s\274\257\336\270\275\322\022\371<l\337\344<\256M|=[R\005>Y\035\022\276y\332?\276\356nZ=\312dB=\211g\r\276\351\343\007\276\0178\255\275\240:M\276F\232\362\275\320\315!\2762\203\255>\376\010\025>6\347\377=M\330c\275\275C/;\273M\205;m\210\231\276\277\022\314<c9L=r~H>\007\326\212\274\260\014;>\026\004H\275\352\017\003>\'M\025>c\233\211>z\222C\276\342\271\354;M\324,=JG\355:S\356\2519\010\272\314=\326\244\320<\016#\216\275je}=\300$@\275C\313\177=\367\025\366=\262z\205\275\236\316\217=\3433\240\274\241\0134;y/S\274\337\212\036\275\351\035\007\276\017\245U\2761\001f=-[\326<}`\333=\340\333\003>\362!\324\274Ek\222=p^>=>\247J<\331k+\275\326\251U\275(@\023\274E\325\227\275\225\003U>g\270\247>\314\220\021\276Hlj\276\203\321L\276>\224\005\273\245\256\215:+\025\033<F5v\273\221\031i=@Q\307\274\254Z\236\275\332\373B\275\307\240\240<\251\"\266<\032\321\002<\244\027&\275d\031\"\276\322\273L=\210A\036\275\332\254\265\274!\253\233=D]\313\275\365\341`=yfN\275\262)\014\275\207\253\270\276\342\035*>\321\327\016\276\200r\376=1\021C>\255\325\224\275`z\345;\017H\203\276_\331)=\301\"q\276\002`\242=\031\020\221>\007\'\315\275\207\343k\276\306i\">zW\005>6\207\207\276@?\363=W\352l\276\202C\214=\222\315\254=\325\352\262\274\207\234\241\274\t\216\016>\320\007_>\264\277\'>v\303\\\276\014$#>!\300\225\274Ns\233\275;\212\010\275\362\305\364\275\372\226\253\274\315\216\200\276T\323\005>g\231\214\275i\r\355=d\216\326\275\226`\304\275\326C\213>\177\203\022\275N\347\r\274\325\237.\274\017\010]\275\377\224\212\274w\r\330=\250~\302=r\224\'\276m\327\214=\274\222O\276\321\3144=\363\222\3449\366\240W=j\034\016\276\304#\232>%\332\004>K\315\305\276\224\351[<\'V\376:\212r\020\276\225\310\352\274Z\266v\272\205\010\025\275\201\306\225<\364U\331\274\373\010[<\334M8<\346\331\337\275|\320\\;\rK\033\276#L\036<\374\213\201\275\247\267\017=\010\022\220\276v\036\265\275\t\233\037=!\240t\275\267\274-=\313j\335<\355\321\262<\371\345\037=\270\t6>\327\316\222=\036\227\206\274\260\361\211\2746\033i\275\210\332\027\275w\331\341\275\007\375\223\276\030\273\207>0\264)\276\300\204\276>\362\331\307>\340,\027\275\247`r\276e\337\r>\366K\374>R\262;>Gc\303\276"
      }
    }
  }
}
node {
  name: "f1"
  op: "Const"
  attr {
    key: "dtype"
    value {
      type: DT_FLOAT
    }
  }
  attr {
    key: "value"
    value {
      tensor {
        dtype: DT_FLOAT
        tensor_shape {
          dim {
            size: 5
          }
          dim {
            size: 5
          }
          dim {
            size: 1
          }
          dim {
            size: 56
          }
        }
